{
  "version": "1.0",
  "truncation": null,
  "padding": null,
  "added_tokens": [
    {
      "id": 0,
      "content": "<PAD>",
      "single_word": false,
      "lstrip": false,
      "rstrip": false,
      "normalized": false,
      "special": true
    },
    {
      "id": 1,
      "content": "<UNK>",
      "single_word": false,
      "lstrip": false,
      "rstrip": false,
      "normalized": false,
      "special": true
    },
    {
      "id": 2,
      "content": "<CLS>",
      "single_word": false,
      "lstrip": false,
      "rstrip": false,
      "normalized": false,
      "special": true
    },
    {
      "id": 3,
      "content": "<SEP>",
      "single_word": false,
      "lstrip": false,
      "rstrip": false,
      "normalized": false,
      "special": true
    },
    {
      "id": 4,
      "content": "<MASK_TOKEN>",
      "single_word": false,
      "lstrip": false,
      "rstrip": false,
      "normalized": false,
      "special": true
    },
    {
      "id": 5,
      "content": "<BOS_TOKEN>",
      "single_word": false,
      "lstrip": false,
      "rstrip": false,
      "normalized": false,
      "special": true
    },
    {
      "id": 6,
      "content": "<EOS_TOKEN>",
      "single_word": false,
      "lstrip": false,
      "rstrip": false,
      "normalized": false,
      "special": true
    },
    {
      "id": 7,
      "content": "<EOP_TOKEN>",
      "single_word": false,
      "lstrip": false,
      "rstrip": false,
      "normalized": false,
      "special": true
    },
    {
      "id": 255000,
      "content": "<|START_OF_TURN_TOKEN|>",
      "single_word": false,
      "lstrip": false,
      "rstrip": false,
      "normalized": false,
      "special": false
    },
    {
      "id": 255001,
      "content": "<|END_OF_TURN_TOKEN|>",
      "single_word": false,
      "lstrip": false,
      "rstrip": false,
      "normalized": false,
      "special": false
    },
    {
      "id": 255002,
      "content": "<|YES_TOKEN|>",
      "single_word": false,
      "lstrip": false,
      "rstrip": false,
      "normalized": false,
      "special": false
    },
    {
      "id": 255003,
      "content": "<|NO_TOKEN|>",
      "single_word": false,
      "lstrip": false,
      "rstrip": false,
      "normalized": false,
      "special": false
    },
    {
      "id": 255004,
      "content": "<|GOOD_TOKEN|>",
      "single_word": false,
      "lstrip": false,
      "rstrip": false,
      "normalized": false,
      "special": false
    },
    {
      "id": 255005,
      "content": "<|BAD_TOKEN|>",
      "single_word": false,
      "lstrip": false,
      "rstrip": false,
      "normalized": false,
      "special": false
    },
    {
      "id": 255006,
      "content": "<|USER_TOKEN|>",
      "single_word": false,
      "lstrip": false,
      "rstrip": false,
      "normalized": false,
      "special": false
    },
    {
      "id": 255007,
      "content": "<|CHATBOT_TOKEN|>",
      "single_word": false,
      "lstrip": false,
      "rstrip": false,
      "normalized": false,
      "special": false
    },
    {
      "id": 255008,
      "content": "<|SYSTEM_TOKEN|>",
      "single_word": false,
      "lstrip": false,
      "rstrip": false,
      "normalized": false,
      "special": false
    },
    {
      "id": 255009,
      "content": "<|USER_0_TOKEN|>",
      "single_word": false,
      "lstrip": false,
      "rstrip": false,
      "normalized": false,
      "special": false
    },
    {
      "id": 255010,
      "content": "<|USER_1_TOKEN|>",
      "single_word": false,
      "lstrip": false,
      "rstrip": false,
      "normalized": false,
      "special": false
    },
    {
      "id": 255011,
      "content": "<|USER_2_TOKEN|>",
      "single_word": false,
      "lstrip": false,
      "rstrip": false,
      "normalized": false,
      "special": false
    },
    {
      "id": 255012,
      "content": "<|USER_3_TOKEN|>",
      "single_word": false,
      "lstrip": false,
      "rstrip": false,
      "normalized": false,
      "special": false
    },
    {
      "id": 255013,
      "content": "<|USER_4_TOKEN|>",
      "single_word": false,
      "lstrip": false,
      "rstrip": false,
      "normalized": false,
      "special": false
    },
    {
      "id": 255014,
      "content": "<|USER_5_TOKEN|>",
      "single_word": false,
      "lstrip": false,
      "rstrip": false,
      "normalized": false,
      "special": false
    },
    {
      "id": 255015,
      "content": "<|USER_6_TOKEN|>",
      "single_word": false,
      "lstrip": false,
      "rstrip": false,
      "normalized": false,
      "special": false
    },
    {
      "id": 255016,
      "content": "<|USER_7_TOKEN|>",
      "single_word": false,
      "lstrip": false,
      "rstrip": false,
      "normalized": false,
      "special": false
    },
    {
      "id": 255017,
      "content": "<|USER_8_TOKEN|>",
      "single_word": false,
      "lstrip": false,
      "rstrip": false,
      "normalized": false,
      "special": false
    },
    {
      "id": 255018,
      "content": "<|USER_9_TOKEN|>",
      "single_word": false,
      "lstrip": false,
      "rstrip": false,
      "normalized": false,
      "special": false
    },
    {
      "id": 255019,
      "content": "<|EXTRA_0_TOKEN|>",
      "single_word": false,
      "lstrip": false,
      "rstrip": false,
      "normalized": false,
      "special": false
    },
    {
      "id": 255020,
      "content": "<|EXTRA_1_TOKEN|>",
      "single_word": false,
      "lstrip": false,
      "rstrip": false,
      "normalized": false,
      "special": false
    },
    {
      "id": 255021,
      "content": "<|EXTRA_2_TOKEN|>",
      "single_word": false,
      "lstrip": false,
      "rstrip": false,
      "normalized": false,
      "special": false
    },
    {
      "id": 255022,
      "content": "<|EXTRA_3_TOKEN|>",
      "single_word": false,
      "lstrip": false,
      "rstrip": false,
      "normalized": false,
      "special": false
    },
    {
      "id": 255023,
      "content": "<|EXTRA_4_TOKEN|>",
      "single_word": false,
      "lstrip": false,
      "rstrip": false,
      "normalized": false,
      "special": false
    },
    {
      "id": 255024,
      "content": "<|EXTRA_5_TOKEN|>",
      "single_word": false,
      "lstrip": false,
      "rstrip": false,
      "normalized": false,
      "special": false
    },
    {
      "id": 255025,
      "content": "<|EXTRA_6_TOKEN|>",
      "single_word": false,
      "lstrip": false,
      "rstrip": false,
      "normalized": false,
      "special": false
    },
    {
      "id": 255026,
      "content": "<|EXTRA_7_TOKEN|>",
      "single_word": false,
      "lstrip": false,
      "rstrip": false,
      "normalized": false,
      "special": false
    },
    {
      "id": 255027,
      "content": "<|EXTRA_8_TOKEN|>",
      "single_word": false,
      "lstrip": false,
      "rstrip": false,
      "normalized": false,
      "special": false
    },
    {
      "id": 255028,
      "content": "<|EXTRA_9_TOKEN|>",
      "single_word": false,
      "lstrip": false,
      "rstrip": false,
      "normalized": false,
      "special": false
    }
  ],
  "normalizer": {
    "type": "NFC"
  },
  "pre_tokenizer": {
    "type": "Sequence",
    "pretokenizers": [
      {
        "type": "Digits",
        "individual_digits": true
      },
      {
        "type": "ByteLevel",
        "add_prefix_space": false,
        "trim_offsets": true,
        "use_regex": true
      }
    ]
  },
  "post_processor": {
    "type": "TemplateProcessing",
    "single": [
      {
        "SpecialToken": {
          "id": "<BOS_TOKEN>",
          "type_id": 0
        }
      },
      {
        "Sequence": {
          "id": "A",
          "type_id": 0
        }
      }
    ],
    "pair": [
      {
        "SpecialToken": {
          "id": "<BOS_TOKEN>",
          "type_id": 0
        }
      },
      {
        "Sequence": {
          "id": "A",
          "type_id": 0
        }
      },
      {
        "SpecialToken": {
          "id": "<BOS_TOKEN>",
          "type_id": 1
        }
      },
      {
        "Sequence": {
          "id": "B",
          "type_id": 1
        }
      }
    ],
    "special_tokens": {
      "<BOS_TOKEN>": {
        "id": "<BOS_TOKEN>",
        "ids": [
          5
        ],
        "tokens": [
          "<BOS_TOKEN>"
        ]
      }
    }
  },
  "decoder": {
    "type": "ByteLevel",
    "add_prefix_space": true,
    "trim_offsets": true,
    "use_regex": true
  },
  "model": {
    "type": "BPE",
    "dropout": null,
    "unk_token": null,
    "continuing_subword_prefix": null,
    "end_of_word_suffix": null,
    "fuse_unk": false,
    "byte_fallback": false,
    "vocab": {
      "<PAD>": 0,
      "<UNK>": 1,
      "<CLS>": 2,
      "<SEP>": 3,
      "<MASK_TOKEN>": 4,
      "<BOS_TOKEN>": 5,
      "<EOS_TOKEN>": 6,
      "<EOP_TOKEN>": 7,
      "!": 8,
      "\"": 9,
      "#": 10,
      "$": 11,
      "%": 12,
      "&": 13,
      "'": 14,
      "(": 15,
      ")": 16,
      "*": 17,
      "+": 18,
      ",": 19,
      "-": 20,
      ".": 21,
      "/": 22,
      "0": 23,
      "1": 24,
      "2": 25,
      "3": 26,
      "4": 27,
      "5": 28,
      "6": 29,
      "7": 30,
      "8": 31,
      "9": 32,
      ":": 33,
      ";": 34,
      "<": 35,
      "=": 36,
      ">": 37,
      "?": 38,
      "@": 39,
      "A": 40,
      "B": 41,
      "C": 42,
      "D": 43,
      "E": 44,
      "F": 45,
      "G": 46,
      "H": 47,
      "I": 48,
      "J": 49,
      "K": 50,
      "L": 51,
      "M": 52,
      "N": 53,
      "O": 54,
      "P": 55,
      "Q": 56,
      "R": 57,
      "S": 58,
      "T": 59,
      "U": 60,
      "V": 61,
      "W": 62,
      "X": 63,
      "Y": 64,
      "Z": 65,
      "[": 66,
      "\\": 67,
      "]": 68,
      "^": 69,
      "_": 70,
      "`": 71,
      "a": 72,
      "b": 73,
      "c": 74,
      "d": 75,
      "e": 76,
      "f": 77,
      "g": 78,
      "h": 79,
      "i": 80,
      "j": 81,
      "k": 82,
      "l": 83,
      "m": 84,
      "n": 85,
      "o": 86,
      "p": 87,
      "q": 88,
      "r": 89,
      "s": 90,
      "t": 91,
      "u": 92,
      "v": 93,
      "w": 94,
      "x": 95,
      "y": 96,
      "z": 97,
      "{": 98,
      "|": 99,
      "}": 100,
      "~": 101,
      "¡": 102,
      "¢": 103,
      "£": 104,
      "¤": 105,
      "¥": 106,
      "¦": 107,
      "§": 108,
      "¨": 109,
      "©": 110,
      "ª": 111,
      "«": 112,
      "¬": 113,
      "®": 114,
      "¯": 115,
      "°": 116,
      "±": 117,
      "²": 118,
      "³": 119,
      "´": 120,
      "µ": 121,
      "¶": 122,
      "·": 123,
      "¸": 124,
      "¹": 125,
      "º": 126,
      "»": 127,
      "¼": 128,
      "½": 129,
      "¾": 130,
      "¿": 131,
      "À": 132,
      "Á": 133,
      "Â": 134,
      "Ã": 135,
      "Ä": 136,
      "Å": 137,
      "Æ": 138,
      "Ç": 139,
      "È": 140,
      "É": 141,
      "Ê": 142,
      "Ë": 143,
      "Ì": 144,
      "Í": 145,
      "Î": 146,
      "Ï": 147,
      "Ð": 148,
      "Ñ": 149,
      "Ò": 150,
      "Ó": 151,
      "Ô": 152,
      "Õ": 153,
      "Ö": 154,
      "×": 155,
      "Ø": 156,
      "Ù": 157,
      "Ú": 158,
      "Û": 159,
      "Ü": 160,
      "Ý": 161,
      "Þ": 162,
      "ß": 163,
      "à": 164,
      "á": 165,
      "â": 166,
      "ã": 167,
      "ä": 168,
      "å": 169,
      "æ": 170,
      "ç": 171,
      "è": 172,
      "é": 173,
      "ê": 174,
      "ë": 175,
      "ì": 176,
      "í": 177,
      "î": 178,
      "ï": 179,
      "ð": 180,
      "ñ": 181,
      "ò": 182,
      "ó": 183,
      "ô": 184,
      "õ": 185,
      "ö": 186,
      "÷": 187,
      "ø": 188,
      "ù": 189,
      "ú": 190,
      "û": 191,
      "ü": 192,
      "ý": 193,
      "þ": 194,
      "ÿ": 195,
      "Ā": 196,
      "ā": 197,
      "Ă": 198,
      "ă": 199,
      "Ą": 200,
      "ą": 201,
      "Ć": 202,
      "ć": 203,
      "Ĉ": 204,
      "ĉ": 205,
      "Ċ": 206,
      "ċ": 207,
      "Č": 208,
      "č": 209,
      "Ď": 210,
      "ď": 211,
      "Đ": 212,
      "đ": 213,
      "Ē": 214,
      "ē": 215,
      "Ĕ": 216,
      "ĕ": 217,
      "Ė": 218,
      "ė": 219,
      "Ę": 220,
      "ę": 221,
      "Ě": 222,
      "ě": 223,
      "Ĝ": 224,
      "ĝ": 225,
      "Ğ": 226,
      "ğ": 227,
      "Ġ": 228,
      "ġ": 229,
      "Ģ": 230,
      "ģ": 231,
      "Ĥ": 232,
      "ĥ": 233,
      "Ħ": 234,
      "ħ": 235,
      "Ĩ": 236,
      "ĩ": 237,
      "Ī": 238,
      "ī": 239,
      "Ĭ": 240,
      "ĭ": 241,
      "Į": 242,
      "į": 243,
      "İ": 244,
      "ı": 245,
      "Ĳ": 246,
      "ĳ": 247,
      "Ĵ": 248,
      "ĵ": 249,
      "Ķ": 250,
      "ķ": 251,
      "ĸ": 252,
      "Ĺ": 253,
      "ĺ": 254,
      "Ļ": 255,
      "ļ": 256,
      "Ľ": 257,
      "ľ": 258,
      "Ŀ": 259,
      "ŀ": 260,
      "Ł": 261,
      "ł": 262,
      "Ń": 263,
      "‍": 264,
      "‼": 265,
      "⁉": 266,
      "⃣": 267,
      "™": 268,
      "ℹ": 269,
      "↔": 270,
      "↕": 271,
      "↖": 272,
      "↗": 273,
      "↘": 274,
      "↙": 275,
      "↩": 276,
      "↪": 277,
      "⌚": 278,
      "⌛": 279,
      "⌨": 280,
      "⏏": 281,
      "⏩": 282,
      "⏪": 283,
      "⏫": 284,
      "⏬": 285,
      "⏭": 286,
      "⏮": 287,
      "⏯": 288,
      "⏰": 289,
      "⏱": 290,
      "⏲": 291,
      "⏳": 292,
      "⏸": 293,
      "⏹": 294,
      "⏺": 295,
      "Ⓜ": 296,
      "▪": 297,
      "▫": 298,
      "▶": 299,
      "◀": 300,
      "◻": 301,
      "◼": 302,
      "◽": 303,
      "◾": 304,
      "☀": 305,
      "☁": 306,
      "☂": 307,
      "☃": 308,
      "☄": 309,
      "☎": 310,
      "☑": 311,
      "☔": 312,
      "☕": 313,
      "☘": 314,
      "☝": 315,
      "☠": 316,
      "☢": 317,
      "☣": 318,
      "☦": 319,
      "☪": 320,
      "☮": 321,
      "☯": 322,
      "☸": 323,
      "☹": 324,
      "☺": 325,
      "♀": 326,
      "♂": 327,
      "♈": 328,
      "♉": 329,
      "♊": 330,
      "♋": 331,
      "♌": 332,
      "♍": 333,
      "♎": 334,
      "♏": 335,
      "♐": 336,
      "♑": 337,
      "♒": 338,
      "♓": 339,
      "♟": 340,
      "♠": 341,
      "♣": 342,
      "♥": 343,
      "♦": 344,
      "♨": 345,
      "♻": 346,
      "♾": 347,
      "♿": 348,
      "⚒": 349,
      "⚓": 350,
      "⚔": 351,
      "⚕": 352,
      "⚖": 353,
      "⚗": 354,
      "⚙": 355,
      "⚛": 356,
      "⚜": 357,
      "⚠": 358,
      "⚡": 359,
      "⚧": 360,
      "⚪": 361,
      "⚫": 362,
      "⚰": 363,
      "⚱": 364,
      "⚽": 365,
      "⚾": 366,
      "⛄": 367,
      "⛅": 368,
      "⛈": 369,
      "⛎": 370,
      "⛏": 371,
      "⛑": 372,
      "⛓": 373,
      "⛔": 374,
      "⛩": 375,
      "⛪": 376,
      "⛰": 377,
      "⛱": 378,
      "⛲": 379,
      "⛳": 380,
      "⛴": 381,
      "⛵": 382,
      "⛷": 383,
      "⛸": 384,
      "⛹": 385,
      "⛺": 386,
      "⛽": 387,
      "✂": 388,
      "✅": 389,
      "✈": 390,
      "✉": 391,
      "✊": 392,
      "✋": 393,
      "✌": 394,
      "✍": 395,
      "✏": 396,
      "✒": 397,
      "✔": 398,
      "✖": 399,
      "✝": 400,
      "✡": 401,
      "✨": 402,
      "✳": 403,
      "✴": 404,
      "❄": 405,
      "❇": 406,
      "❌": 407,
      "❎": 408,
      "❓": 409,
      "❔": 410,
      "❕": 411,
      "❗": 412,
      "❣": 413,
      "❤": 414,
      "➕": 415,
      "➖": 416,
      "➗": 417,
      "➡": 418,
      "➰": 419,
      "➿": 420,
      "⤴": 421,
      "⤵": 422,
      "⬅": 423,
      "⬆": 424,
      "⬇": 425,
      "⬛": 426,
      "⬜": 427,
      "⭐": 428,
      "⭕": 429,
      "〰": 430,
      "〽": 431,
      "㊗": 432,
      "㊙": 433,
      "️": 434,
      "🀄": 435,
      "🃏": 436,
      "🅰": 437,
      "🅱": 438,
      "🅾": 439,
      "🅿": 440,
      "🆎": 441,
      "🆑": 442,
      "🆒": 443,
      "🆓": 444,
      "🆔": 445,
      "🆕": 446,
      "🆖": 447,
      "🆗": 448,
      "🆘": 449,
      "🆙": 450,
      "🆚": 451,
      "🇦": 452,
      "🇧": 453,
      "🇨": 454,
      "🇩": 455,
      "🇪": 456,
      "🇫": 457,
      "🇬": 458,
      "🇭": 459,
      "🇮": 460,
      "🇯": 461,
      "🇰": 462,
      "🇱": 463,
      "🇲": 464,
      "🇳": 465,
      "🇴": 466,
      "🇵": 467,
      "🇶": 468,
      "🇷": 469,
      "🇸": 470,
      "🇹": 471,
      "🇺": 472,
      "🇻": 473,
      "🇼": 474,
      "🇽": 475,
      "🇾": 476,
      "🇿": 477,
      "🈁": 478,
      "🈂": 479,
      "🈚": 480,
      "🈯": 481,
      "🈲": 482,
      "🈳": 483,
      "🈴": 484,
      "🈵": 485,
      "🈶": 486,
      "🈷": 487,
      "🈸": 488,
      "🈹": 489,
      "🈺": 490,
      "🉐": 491,
      "🉑": 492,
      "🌀": 493,
      "🌁": 494,
      "🌂": 495,
      "🌃": 496,
      "🌄": 497,
      "🌅": 498,
      "🌆": 499,
      "🌇": 500,
      "🌈": 501,
      "🌉": 502,
      "🌊": 503,
      "🌋": 504,
      "🌌": 505,
      "🌍": 506,
      "🌎": 507,
      "🌏": 508,
      "🌐": 509,
      "🌑": 510,
      "🌒": 511,
      "🌓": 512,
      "🌔": 513,
      "🌕": 514,
      "🌖": 515,
      "🌗": 516,
      "🌘": 517,
      "🌙": 518,
      "🌚": 519,
      "🌛": 520,
      "🌜": 521,
      "🌝": 522,
      "🌞": 523,
      "🌟": 524,
      "🌠": 525,
      "🌡": 526,
      "🌤": 527,
      "🌥": 528,
      "🌦": 529,
      "🌧": 530,
      "🌨": 531,
      "🌩": 532,
      "🌪": 533,
      "🌫": 534,
      "🌬": 535,
      "🌭": 536,
      "🌮": 537,
      "🌯": 538,
      "🌰": 539,
      "🌱": 540,
      "🌲": 541,
      "🌳": 542,
      "🌴": 543,
      "🌵": 544,
      "🌶": 545,
      "🌷": 546,
      "🌸": 547,
      "🌹": 548,
      "🌺": 549,
      "🌻": 550,
      "🌼": 551,
      "🌽": 552,
      "🌾": 553,
      "🌿": 554,
      "🍀": 555,
      "🍁": 556,
      "🍂": 557,
      "🍃": 558,
      "🍄": 559,
      "🍅": 560,
      "🍆": 561,
      "🍇": 562,
      "🍈": 563,
      "🍉": 564,
      "🍊": 565,
      "🍋": 566,
      "🍌": 567,
      "🍍": 568,
      "🍎": 569,
      "🍏": 570,
      "🍐": 571,
      "🍑": 572,
      "🍒": 573,
      "🍓": 574,
      "🍔": 575,
      "🍕": 576,
      "🍖": 577,
      "🍗": 578,
      "🍘": 579,
      "🍙": 580,
      "🍚": 581,
      "🍛": 582,
      "🍜": 583,
      "🍝": 584,
      "🍞": 585,
      "🍟": 586,
      "🍠": 587,
      "🍡": 588,
      "🍢": 589,
      "🍣": 590,
      "🍤": 591,
      "🍥": 592,
      "🍦": 593,
      "🍧": 594,
      "🍨": 595,
      "🍩": 596,
      "🍪": 597,
      "🍫": 598,
      "🍬": 599,
      "🍭": 600,
      "🍮": 601,
      "🍯": 602,
      "🍰": 603,
      "🍱": 604,
      "🍲": 605,
      "🍳": 606,
      "🍴": 607,
      "🍵": 608,
      "🍶": 609,
      "🍷": 610,
      "🍸": 611,
      "🍹": 612,
      "🍺": 613,
      "🍻": 614,
      "🍼": 615,
      "🍽": 616,
      "🍾": 617,
      "🍿": 618,
      "🎀": 619,
      "🎁": 620,
      "🎂": 621,
      "🎃": 622,
      "🎄": 623,
      "🎅": 624,
      "🎆": 625,
      "🎇": 626,
      "🎈": 627,
      "🎉": 628,
      "🎊": 629,
      "🎋": 630,
      "🎌": 631,
      "🎍": 632,
      "🎎": 633,
      "🎏": 634,
      "🎐": 635,
      "🎑": 636,
      "🎒": 637,
      "🎓": 638,
      "🎖": 639,
      "🎗": 640,
      "🎙": 641,
      "🎚": 642,
      "🎛": 643,
      "🎞": 644,
      "🎟": 645,
      "🎠": 646,
      "🎡": 647,
      "🎢": 648,
      "🎣": 649,
      "🎤": 650,
      "🎥": 651,
      "🎦": 652,
      "🎧": 653,
      "🎨": 654,
      "🎩": 655,
      "🎪": 656,
      "🎫": 657,
      "🎬": 658,
      "🎭": 659,
      "🎮": 660,
      "🎯": 661,
      "🎰": 662,
      "🎱": 663,
      "🎲": 664,
      "🎳": 665,
      "🎴": 666,
      "🎵": 667,
      "🎶": 668,
      "🎷": 669,
      "🎸": 670,
      "🎹": 671,
      "🎺": 672,
      "🎻": 673,
      "🎼": 674,
      "🎽": 675,
      "🎾": 676,
      "🎿": 677,
      "🏀": 678,
      "🏁": 679,
      "🏂": 680,
      "🏃": 681,
      "🏄": 682,
      "🏅": 683,
      "🏆": 684,
      "🏇": 685,
      "🏈": 686,
      "🏉": 687,
      "🏊": 688,
      "🏋": 689,
      "🏌": 690,
      "🏍": 691,
      "🏎": 692,
      "🏏": 693,
      "🏐": 694,
      "🏑": 695,
      "🏒": 696,
      "🏓": 697,
      "🏔": 698,
      "🏕": 699,
      "🏖": 700,
      "🏗": 701,
      "🏘": 702,
      "🏙": 703,
      "🏚": 704,
      "🏛": 705,
      "🏜": 706,
      "🏝": 707,
      "🏞": 708,
      "🏟": 709,
      "🏠": 710,
      "🏡": 711,
      "🏢": 712,
      "🏣": 713,
      "🏤": 714,
      "🏥": 715,
      "🏦": 716,
      "🏧": 717,
      "🏨": 718,
      "🏩": 719,
      "🏪": 720,
      "🏫": 721,
      "🏬": 722,
      "🏭": 723,
      "🏮": 724,
      "🏯": 725,
      "🏰": 726,
      "🏳": 727,
      "🏴": 728,
      "🏵": 729,
      "🏷": 730,
      "🏸": 731,
      "🏹": 732,
      "🏺": 733,
      "🏻": 734,
      "🏼": 735,
      "🏽": 736,
      "🏾": 737,
      "🏿": 738,
      "🐀": 739,
      "🐁": 740,
      "🐂": 741,
      "🐃": 742,
      "🐄": 743,
      "🐅": 744,
      "🐆": 745,
      "🐇": 746,
      "🐈": 747,
      "🐉": 748,
      "🐊": 749,
      "🐋": 750,
      "🐌": 751,
      "🐍": 752,
      "🐎": 753,
      "🐏": 754,
      "🐐": 755,
      "🐑": 756,
      "🐒": 757,
      "🐓": 758,
      "🐔": 759,
      "🐕": 760,
      "🐖": 761,
      "🐗": 762,
      "🐘": 763,
      "🐙": 764,
      "🐚": 765,
      "🐛": 766,
      "🐜": 767,
      "🐝": 768,
      "🐞": 769,
      "🐟": 770,
      "🐠": 771,
      "🐡": 772,
      "🐢": 773,
      "🐣": 774,
      "🐤": 775,
      "🐥": 776,
      "🐦": 777,
      "🐧": 778,
      "🐨": 779,
      "🐩": 780,
      "🐪": 781,
      "🐫": 782,
      "🐬": 783,
      "🐭": 784,
      "🐮": 785,
      "🐯": 786,
      "🐰": 787,
      "🐱": 788,
      "🐲": 789,
      "🐳": 790,
      "🐴": 791,
      "🐵": 792,
      "🐶": 793,
      "🐷": 794,
      "🐸": 795,
      "🐹": 796,
      "🐺": 797,
      "🐻": 798,
      "🐼": 799,
      "🐽": 800,
      "🐾": 801,
      "🐿": 802,
      "👀": 803,
      "👁": 804,
      "👂": 805,
      "👃": 806,
      "👄": 807,
      "👅": 808,
      "👆": 809,
      "👇": 810,
      "👈": 811,
      "👉": 812,
      "👊": 813,
      "👋": 814,
      "👌": 815,
      "👍": 816,
      "👎": 817,
      "👏": 818,
      "👐": 819,
      "👑": 820,
      "👒": 821,
      "👓": 822,
      "👔": 823,
      "👕": 824,
      "👖": 825,
      "👗": 826,
      "👘": 827,
      "👙": 828,
      "👚": 829,
      "👛": 830,
      "👜": 831,
      "👝": 832,
      "👞": 833,
      "👟": 834,
      "👠": 835,
      "👡": 836,
      "👢": 837,
      "👣": 838,
      "👤": 839,
      "👥": 840,
      "👦": 841,
      "👧": 842,
      "👨": 843,
      "👩": 844,
      "👪": 845,
      "👫": 846,
      "👬": 847,
      "👭": 848,
      "👮": 849,
      "👯": 850,
      "👰": 851,
      "👱": 852,
      "👲": 853,
      "👳": 854,
      "👴": 855,
      "👵": 856,
      "👶": 857,
      "👷": 858,
      "👸": 859,
      "👹": 860,
      "👺": 861,
      "👻": 862,
      "👼": 863,
      "👽": 864,
      "👾": 865,
      "👿": 866,
      "💀": 867,
      "💁": 868,
      "💂": 869,
      "💃": 870,
      "💄": 871,
      "💅": 872,
      "💆": 873,
      "💇": 874,
      "💈": 875,
      "💉": 876,
      "💊": 877,
      "💋": 878,
      "💌": 879,
      "💍": 880,
      "💎": 881,
      "💏": 882,
      "💐": 883,
      "💑": 884,
      "💒": 885,
      "💓": 886,
      "💔": 887,
      "💕": 888,
      "💖": 889,
      "💗": 890,
      "💘": 891,
      "💙": 892,
      "💚": 893,
      "💛": 894,
      "💜": 895,
      "💝": 896,
      "💞": 897,
      "💟": 898,
      "💠": 899,
      "💡": 900,
      "💢": 901,
      "💣": 902,
      "💤": 903,
      "💥": 904,
      "💦": 905,
      "💧": 906,
      "💨": 907,
      "💩": 908,
      "💪": 909,
      "💫": 910,
      "💬": 911,
      "💭": 912,
      "💮": 913,
      "💯": 914,
      "💰": 915,
      "💱": 916,
      "💲": 917,
      "💳": 918,
      "💴": 919,
      "💵": 920,
      "💶": 921,
      "💷": 922,
      "💸": 923,
      "💹": 924,
      "💺": 925,
      "💻": 926,
      "💼": 927,
      "💽": 928,
      "💾": 929,
      "💿": 930,
      "📀": 931,
      "📁": 932,
      "📂": 933,
      "📃": 934,
      "📄": 935,
      "📅": 936,
      "📆": 937,
      "📇": 938,
      "📈": 939,
      "📉": 940,
      "📊": 941,
      "📋": 942,
      "📌": 943,
      "📍": 944,
      "📎": 945,
      "📏": 946,
      "📐": 947,
      "📑": 948,
      "📒": 949,
      "📓": 950,
      "📔": 951,
      "📕": 952,
      "📖": 953,
      "📗": 954,
      "📘": 955,
      "📙": 956,
      "📚": 957,
      "📛": 958,
      "📜": 959,
      "📝": 960,
      "📞": 961,
      "📟": 962,
      "📠": 963,
      "📡": 964,
      "📢": 965,
      "📣": 966,
      "📤": 967,
      "📥": 968,
      "📦": 969,
      "📧": 970,
      "📨": 971,
      "📩": 972,
      "📪": 973,
      "📫": 974,
      "📬": 975,
      "📭": 976,
      "📮": 977,
      "📯": 978,
      "📰": 979,
      "📱": 980,
      "📲": 981,
      "📳": 982,
      "📴": 983,
      "📵": 984,
      "📶": 985,
      "📷": 986,
      "📸": 987,
      "📹": 988,
      "📺": 989,
      "📻": 990,
      "📼": 991,
      "📽": 992,
      "📿": 993,
      "🔀": 994,
      "🔁": 995,
      "🔂": 996,
      "🔃": 997,
      "🔄": 998,
      "🔅": 999,
      "🔆": 1000,
      "🔇": 1001,
      "🔈": 1002,
      "🔉": 1003,
      "🔊": 1004,
      "🔋": 1005,
      "🔌": 1006,
      "🔍": 1007,
      "🔎": 1008,
      "🔏": 1009,
      "🔐": 1010,
      "🔑": 1011,
      "🔒": 1012,
      "🔓": 1013,
      "🔔": 1014,
      "🔕": 1015,
      "🔖": 1016,
      "🔗": 1017,
      "🔘": 1018,
      "🔙": 1019,
      "🔚": 1020,
      "🔛": 1021,
      "🔜": 1022,
      "🔝": 1023,
      "🔞": 1024,
      "🔟": 1025,
      "🔠": 1026,
      "🔡": 1027,
      "🔢": 1028,
      "🔣": 1029,
      "🔤": 1030,
      "🔥": 1031,
      "🔦": 1032,
      "🔧": 1033,
      "🔨": 1034,
      "🔩": 1035,
      "🔪": 1036,
      "🔫": 1037,
      "🔬": 1038,
      "🔭": 1039,
      "🔮": 1040,
      "🔯": 1041,
      "🔰": 1042,
      "🔱": 1043,
      "🔲": 1044,
      "🔳": 1045,
      "🔴": 1046,
      "🔵": 1047,
      "🔶": 1048,
      "🔷": 1049,
      "🔸": 1050,
      "🔹": 1051,
      "🔺": 1052,
      "🔻": 1053,
      "🔼": 1054,
      "🔽": 1055,
      "🕉": 1056,
      "🕊": 1057,
      "🕋": 1058,
      "🕌": 1059,
      "🕍": 1060,
      "🕎": 1061,
      "🕐": 1062,
      "🕑": 1063,
      "🕒": 1064,
      "🕓": 1065,
      "🕔": 1066,
      "🕕": 1067,
      "🕖": 1068,
      "🕗": 1069,
      "🕘": 1070,
      "🕙": 1071,
      "🕚": 1072,
      "🕛": 1073,
      "🕜": 1074,
      "🕝": 1075,
      "🕞": 1076,
      "🕟": 1077,
      "🕠": 1078,
      "🕡": 1079,
      "🕢": 1080,
      "🕣": 1081,
      "🕤": 1082,
      "🕥": 1083,
      "🕦": 1084,
      "🕧": 1085,
      "🕯": 1086,
      "🕰": 1087,
      "🕳": 1088,
      "🕴": 1089,
      "🕵": 1090,
      "🕶": 1091,
      "🕷": 1092,
      "🕸": 1093,
      "🕹": 1094,
      "🕺": 1095,
      "🖇": 1096,
      "🖊": 1097,
      "🖋": 1098,
      "🖌": 1099,
      "🖍": 1100,
      "🖐": 1101,
      "🖕": 1102,
      "🖖": 1103,
      "🖤": 1104,
      "🖥": 1105,
      "🖨": 1106,
      "🖱": 1107,
      "🖲": 1108,
      "🖼": 1109,
      "🗂": 1110,
      "🗃": 1111,
      "🗄": 1112,
      "🗑": 1113,
      "🗒": 1114,
      "🗓": 1115,
      "🗜": 1116,
      "🗝": 1117,
      "🗞": 1118,
      "🗡": 1119,
      "🗣": 1120,
      "🗨": 1121,
      "🗯": 1122,
      "🗳": 1123,
      "🗺": 1124,
      "🗻": 1125,
      "🗼": 1126,
      "🗽": 1127,
      "🗾": 1128,
      "🗿": 1129,
      "😀": 1130,
      "😁": 1131,
      "😂": 1132,
      "😃": 1133,
      "😄": 1134,
      "😅": 1135,
      "😆": 1136,
      "😇": 1137,
      "😈": 1138,
      "😉": 1139,
      "😊": 1140,
      "😋": 1141,
      "😌": 1142,
      "😍": 1143,
      "😎": 1144,
      "😏": 1145,
      "😐": 1146,
      "😑": 1147,
      "😒": 1148,
      "😓": 1149,
      "😔": 1150,
      "😕": 1151,
      "😖": 1152,
      "😗": 1153,
      "😘": 1154,
      "😙": 1155,
      "😚": 1156,
      "😛": 1157,
      "😜": 1158,
      "😝": 1159,
      "😞": 1160,
      "😟": 1161,
      "😠": 1162,
      "😡": 1163,
      "😢": 1164,
      "😣": 1165,
      "😤": 1166,
      "😥": 1167,
      "😦": 1168,
      "😧": 1169,
      "😨": 1170,
      "😩": 1171,
      "😪": 1172,
      "😫": 1173,
      "😬": 1174,
      "😭": 1175,
      "😮": 1176,
      "😯": 1177,
      "😰": 1178,
      "😱": 1179,
      "😲": 1180,
      "😳": 1181,
      "😴": 1182,
      "😵": 1183,
      "😶": 1184,
      "😷": 1185,
      "😸": 1186,
      "😹": 1187,
      "😺": 1188,
      "😻": 1189,
      "😼": 1190,
      "😽": 1191,
      "😾": 1192,
      "😿": 1193,
      "🙀": 1194,
      "🙁": 1195,
      "🙂": 1196,
      "🙃": 1197,
      "🙄": 1198,
      "🙅": 1199,
      "🙆": 1200,
      "🙇": 1201,
      "🙈": 1202,
      "🙉": 1203,
      "🙊": 1204,
      "🙋": 1205,
      "🙌": 1206,
      "🙍": 1207,
      "🙎": 1208,
      "🙏": 1209,
      "🚀": 1210,
      "🚁": 1211,
      "🚂": 1212,
      "🚃": 1213,
      "🚄": 1214,
      "🚅": 1215,
      "🚆": 1216,
      "🚇": 1217,
      "🚈": 1218,
      "🚉": 1219,
      "🚊": 1220,
      "🚋": 1221,
      "🚌": 1222,
      "🚍": 1223,
      "🚎": 1224,
      "🚏": 1225,
      "🚐": 1226,
      "🚑": 1227,
      "🚒": 1228,
      "🚓": 1229,
      "🚔": 1230,
      "🚕": 1231,
      "🚖": 1232,
      "🚗": 1233,
      "🚘": 1234,
      "🚙": 1235,
      "🚚": 1236,
      "🚛": 1237,
      "🚜": 1238,
      "🚝": 1239,
      "🚞": 1240,
      "🚟": 1241,
      "🚠": 1242,
      "🚡": 1243,
      "🚢": 1244,
      "🚣": 1245,
      "🚤": 1246,
      "🚥": 1247,
      "🚦": 1248,
      "🚧": 1249,
      "🚨": 1250,
      "🚩": 1251,
      "🚪": 1252,
      "🚫": 1253,
      "🚬": 1254,
      "🚭": 1255,
      "🚮": 1256,
      "🚯": 1257,
      "🚰": 1258,
      "🚱": 1259,
      "🚲": 1260,
      "🚳": 1261,
      "🚴": 1262,
      "🚵": 1263,
      "🚶": 1264,
      "🚷": 1265,
      "🚸": 1266,
      "🚹": 1267,
      "🚺": 1268,
      "🚻": 1269,
      "🚼": 1270,
      "🚽": 1271,
      "🚾": 1272,
      "🚿": 1273,
      "🛀": 1274,
      "🛁": 1275,
      "🛂": 1276,
      "🛃": 1277,
      "🛄": 1278,
      "🛅": 1279,
      "🛋": 1280,
      "🛌": 1281,
      "🛍": 1282,
      "🛎": 1283,
      "🛏": 1284,
      "🛐": 1285,
      "🛑": 1286,
      "🛒": 1287,
      "🛕": 1288,
      "🛖": 1289,
      "🛗": 1290,
      "🛝": 1291,
      "🛞": 1292,
      "🛟": 1293,
      "🛠": 1294,
      "🛡": 1295,
      "🛢": 1296,
      "🛣": 1297,
      "🛤": 1298,
      "🛥": 1299,
      "🛩": 1300,
      "🛫": 1301,
      "🛬": 1302,
      "🛰": 1303,
      "🛳": 1304,
      "🛴": 1305,
      "🛵": 1306,
      "🛶": 1307,
      "🛷": 1308,
      "🛸": 1309,
      "🛹": 1310,
      "🛺": 1311,
      "🛻": 1312,
      "🛼": 1313,
      "🟠": 1314,
      "🟡": 1315,
      "🟢": 1316,
      "🟣": 1317,
      "🟤": 1318,
      "🟥": 1319,
      "🟦": 1320,
      "🟧": 1321,
      "🟨": 1322,
      "🟩": 1323,
      "🟪": 1324,
      "🟫": 1325,
      "🟰": 1326,
      "🤌": 1327,
      "🤍": 1328,
      "🤎": 1329,
      "🤏": 1330,
      "🤐": 1331,
      "🤑": 1332,
      "🤒": 1333,
      "🤓": 1334,
      "🤔": 1335,
      "🤕": 1336,
      "🤖": 1337,
      "🤗": 1338,
      "🤘": 1339,
      "🤙": 1340,
      "🤚": 1341,
      "🤛": 1342,
      "🤜": 1343,
      "🤝": 1344,
      "🤞": 1345,
      "🤟": 1346,
      "🤠": 1347,
      "🤡": 1348,
      "🤢": 1349,
      "🤣": 1350,
      "🤤": 1351,
      "🤥": 1352,
      "🤦": 1353,
      "🤧": 1354,
      "🤨": 1355,
      "🤩": 1356,
      "🤪": 1357,
      "🤫": 1358,
      "🤬": 1359,
      "🤭": 1360,
      "🤮": 1361,
      "🤯": 1362,
      "🤰": 1363,
      "🤱": 1364,
      "🤲": 1365,
      "🤳": 1366,
      "🤴": 1367,
      "🤵": 1368,
      "🤶": 1369,
      "🤷": 1370,
      "🤸": 1371,
      "🤹": 1372,
      "🤺": 1373,
      "🤼": 1374,
      "🤽": 1375,
      "🤾": 1376,
      "🤿": 1377,
      "🥀": 1378,
      "🥁": 1379,
      "🥂": 1380,
      "🥃": 1381,
      "🥄": 1382,
      "🥅": 1383,
      "🥇": 1384,
      "🥈": 1385,
      "🥉": 1386,
      "🥊": 1387,
      "🥋": 1388,
      "🥌": 1389,
      "🥍": 1390,
      "🥎": 1391,
      "🥏": 1392,
      "🥐": 1393,
      "🥑": 1394,
      "🥒": 1395,
      "🥓": 1396,
      "🥔": 1397,
      "🥕": 1398,
      "🥖": 1399,
      "🥗": 1400,
      "🥘": 1401,
      "🥙": 1402,
      "🥚": 1403,
      "🥛": 1404,
      "🥜": 1405,
      "🥝": 1406,
      "🥞": 1407,
      "🥟": 1408,
      "🥠": 1409,
      "🥡": 1410,
      "🥢": 1411,
      "🥣": 1412,
      "🥤": 1413,
      "🥥": 1414,
      "🥦": 1415,
      "🥧": 1416,
      "🥨": 1417,
      "🥩": 1418,
      "🥪": 1419,
      "🥫": 1420,
      "🥬": 1421,
      "🥭": 1422,
      "🥮": 1423,
      "🥯": 1424,
      "🥰": 1425,
      "🥱": 1426,
      "🥲": 1427,
      "🥳": 1428,
      "🥴": 1429,
      "🥵": 1430,
      "🥶": 1431,
      "🥷": 1432,
      "🥸": 1433,
      "🥹": 1434,
      "🥺": 1435,
      "🥻": 1436,
      "🥼": 1437,
      "🥽": 1438,
      "🥾": 1439,
      "🥿": 1440,
      "🦀": 1441,
      "🦁": 1442,
      "🦂": 1443,
      "🦃": 1444,
      "🦄": 1445,
      "🦅": 1446,
      "🦆": 1447,
      "🦇": 1448,
      "🦈": 1449,
      "🦉": 1450,
      "🦊": 1451,
      "🦋": 1452,
      "🦌": 1453,
      "🦍": 1454,
      "🦎": 1455,
      "🦏": 1456,
      "🦐": 1457,
      "🦑": 1458,
      "🦒": 1459,
      "🦓": 1460,
      "🦔": 1461,
      "🦕": 1462,
      "🦖": 1463,
      "🦗": 1464,
      "🦘": 1465,
      "🦙": 1466,
      "🦚": 1467,
      "🦛": 1468,
      "🦜": 1469,
      "🦝": 1470,
      "🦞": 1471,
      "🦟": 1472,
      "🦠": 1473,
      "🦡": 1474,
      "🦢": 1475,
      "🦣": 1476,
      "🦤": 1477,
      "🦥": 1478,
      "🦦": 1479,
      "🦧": 1480,
      "🦨": 1481,
      "🦩": 1482,
      "🦪": 1483,
      "🦫": 1484,
      "🦬": 1485,
      "🦭": 1486,
      "🦮": 1487,
      "🦯": 1488,
      "🦰": 1489,
      "🦱": 1490,
      "🦲": 1491,
      "🦳": 1492,
      "🦴": 1493,
      "🦵": 1494,
      "🦶": 1495,
      "🦷": 1496,
      "🦸": 1497,
      "🦹": 1498,
      "🦺": 1499,
      "🦻": 1500,
      "🦼": 1501,
      "🦽": 1502,
      "🦾": 1503,
      "🦿": 1504,
      "🧀": 1505,
      "🧁": 1506,
      "🧂": 1507,
      "🧃": 1508,
      "🧄": 1509,
      "🧅": 1510,
      "🧆": 1511,
      "🧇": 1512,
      "🧈": 1513,
      "🧉": 1514,
      "🧊": 1515,
      "🧋": 1516,
      "🧌": 1517,
      "🧍": 1518,
      "🧎": 1519,
      "🧏": 1520,
      "🧐": 1521,
      "🧑": 1522,
      "🧒": 1523,
      "🧓": 1524,
      "🧔": 1525,
      "🧕": 1526,
      "🧖": 1527,
      "🧗": 1528,
      "🧘": 1529,
      "🧙": 1530,
      "🧚": 1531,
      "🧛": 1532,
      "🧜": 1533,
      "🧝": 1534,
      "🧞": 1535,
      "🧟": 1536,
      "🧠": 1537,
      "🧡": 1538,
      "🧢": 1539,
      "🧣": 1540,
      "🧤": 1541,
      "🧥": 1542,
      "🧦": 1543,
      "🧧": 1544,
      "🧨": 1545,
      "🧩": 1546,
      "🧪": 1547,
      "🧫": 1548,
      "🧬": 1549,
      "🧭": 1550,
      "🧮": 1551,
      "🧯": 1552,
      "🧰": 1553,
      "🧱": 1554,
      "🧲": 1555,
      "🧳": 1556,
      "🧴": 1557,
      "🧵": 1558,
      "🧶": 1559,
      "🧷": 1560,
      "🧸": 1561,
      "🧹": 1562,
      "🧺": 1563,
      "🧻": 1564,
      "🧼": 1565,
      "🧽": 1566,
      "🧾": 1567,
      "🧿": 1568,
      "🩰": 1569,
      "🩱": 1570,
      "🩲": 1571,
      "🩳": 1572,
      "🩴": 1573,
      "🩸": 1574,
      "🩹": 1575,
      "🩺": 1576,
      "🩻": 1577,
      "🩼": 1578,
      "🪀": 1579,
      "🪁": 1580,
      "🪂": 1581,
      "🪃": 1582,
      "🪄": 1583,
      "🪅": 1584,
      "🪆": 1585,
      "🪐": 1586,
      "🪑": 1587,
      "🪒": 1588,
      "🪓": 1589,
      "🪔": 1590,
      "🪕": 1591,
      "🪖": 1592,
      "🪗": 1593,
      "🪘": 1594,
      "🪙": 1595,
      "🪚": 1596,
      "🪛": 1597,
      "🪜": 1598,
      "🪝": 1599,
      "🪞": 1600,
      "🪟": 1601,
      "🪠": 1602,
      "🪡": 1603,
      "🪢": 1604,
      "🪣": 1605,
      "🪤": 1606,
      "🪥": 1607,
      "🪦": 1608,
      "🪧": 1609,
      "🪨": 1610,
      "🪩": 1611,
      "🪪": 1612,
      "🪫": 1613,
      "🪬": 1614,
      "🪰": 1615,
      "🪱": 1616,
      "🪲": 1617,
      "🪳": 1618,
      "🪴": 1619,
      "🪵": 1620,
      "🪶": 1621,
      "🪷": 1622,
      "🪸": 1623,
      "🪹": 1624,
      "🪺": 1625,
      "🫀": 1626,
      "🫁": 1627,
      "🫂": 1628,
      "🫃": 1629,
      "🫄": 1630,
      "🫅": 1631,
      "🫐": 1632,
      "🫑": 1633,
      "🫒": 1634,
      "🫓": 1635,
      "🫔": 1636,
      "🫕": 1637,
      "🫖": 1638,
      "🫗": 1639,
      "🫘": 1640,
      "🫙": 1641,
      "🫠": 1642,
      "🫡": 1643,
      "🫢": 1644,
      "🫣": 1645,
      "🫤": 1646,
      "🫥": 1647,
      "🫦": 1648,
      "🫧": 1649,
      "🫰": 1650,
      "🫱": 1651,
      "🫲": 1652,
      "🫳": 1653,
      "🫴": 1654,
      "🫵": 1655,
      "🫶": 1656,
      "󠁢": 1657,
      "󠁣": 1658,
      "󠁥": 1659,
      "󠁧": 1660,
      "󠁬": 1661,
      "󠁮": 1662,
      "󠁳": 1663,
      "󠁴": 1664,
      "󠁷": 1665,
      "󠁿": 1666,
      "ĠĠ": 1667,
      "Ġt": 1668,
      "er": 1669,
      "in": 1670,
      "Ġa": 1671,
      "on": 1672,
      "en": 1673,
      "es": 1674,
      "an": 1675,
      "Ġd": 1676,
      "or": 1677,
      "he": 1678,
      "Ġs": 1679,
      "at": 1680,
      "ĠĠĠĠ": 1681,
      "Ġc": 1682,
      "ar": 1683,
      "Ġp": 1684,
      "is": 1685,
      "re": 1686,
      "al": 1687,
      "it": 1688,
      "ĠÐ": 1689,
      "Ġthe": 1690,
      "Ġo": 1691,
      "Ð¾": 1692,
      "le": 1693,
      "as": 1694,
      "Ġw": 1695,
      "Ġf": 1696,
      "ic": 1697,
      "Ġm": 1698,
      "ed": 1699,
      "Ġb": 1700,
      "ou": 1701,
      "Ð°": 1702,
      "nd": 1703,
      "ing": 1704,
      "ion": 1705,
      "ro": 1706,
      "el": 1707,
      "Ġ|": 1708,
      "Ġin": 1709,
      "Ðµ": 1710,
      "Ġl": 1711,
      "ent": 1712,
      "Ð¸": 1713,
      "à¤": 1714,
      "Ġde": 1715,
      "il": 1716,
      "Ð½": 1717,
      "Ġn": 1718,
      "Ġof": 1719,
      "et": 1720,
      "ĠS": 1721,
      "am": 1722,
      "om": 1723,
      "ÑĢ": 1724,
      "st": 1725,
      "Ġto": 1726,
      "Ġh": 1727,
      "Ġand": 1728,
      "ÑĤ": 1729,
      "Ñģ": 1730,
      "ad": 1731,
      "Ð¾Ð": 1732,
      "ĠC": 1733,
      "ac": 1734,
      "ol": 1735,
      "ĠA": 1736,
      "Ġ(": 1737,
      "ur": 1738,
      "Ġe": 1739,
      "id": 1740,
      "ĠT": 1741,
      "ĠĠĠ": 1742,
      "un": 1743,
      "ĠM": 1744,
      "Ġv": 1745,
      "Ġth": 1746,
      "os": 1747,
      "im": 1748,
      "ĠĠĠĠĠĠĠĠ": 1749,
      "ch": 1750,
      "Ã©": 1751,
      "Ġg": 1752,
      "ãģ": 1753,
      "ut": 1754,
      "ĠP": 1755,
      "us": 1756,
      "ct": 1757,
      "Ġre": 1758,
      "em": 1759,
      "ig": 1760,
      "ĠB": 1761,
      "--": 1762,
      "iv": 1763,
      "Ð»": 1764,
      "ul": 1765,
      "ot": 1766,
      "ĠI": 1767,
      "qu": 1768,
      "est": 1769,
      "Ġy": 1770,
      "ir": 1771,
      "ĠD": 1772,
      "âĢ": 1773,
      "Ø§": 1774,
      "ra": 1775,
      "Ðº": 1776,
      "ĠL": 1777,
      "ers": 1778,
      "ation": 1779,
      "ĠR": 1780,
      "ist": 1781,
      "ow": 1782,
      "um": 1783,
      "Ñĥ": 1784,
      "ie": 1785,
      "ag": 1786,
      "ce": 1787,
      "á»": 1788,
      "Ġ\"": 1789,
      "ay": 1790,
      "Ġr": 1791,
      "od": 1792,
      "ĠH": 1793,
      "Ġfor": 1794,
      "ĠF": 1795,
      "ĠÎ": 1796,
      "ãĥ": 1797,
      "ter": 1798,
      "Ġcon": 1799,
      "ãĢ": 1800,
      "Ġis": 1801,
      "Ġst": 1802,
      "ĠE": 1803,
      "ia": 1804,
      "ĠN": 1805,
      "ĠG": 1806,
      "and": 1807,
      "ï¼": 1808,
      "ãĤ": 1809,
      "if": 1810,
      "th": 1811,
      "Ġon": 1812,
      "Ð²": 1813,
      "Ġal": 1814,
      "Ġk": 1815,
      "ab": 1816,
      "ly": 1817,
      "Ġbe": 1818,
      "Ġen": 1819,
      "oc": 1820,
      "ith": 1821,
      "te": 1822,
      "ess": 1823,
      "ĠW": 1824,
      "à¥": 1825,
      "ĊĠĠĠĠ": 1826,
      "Ġcom": 1827,
      "Ġ×": 1828,
      "Ñı": 1829,
      "Ġpro": 1830,
      "Ġse": 1831,
      "pe": 1832,
      "ri": 1833,
      "Ġà¤": 1834,
      "ÏĦ": 1835,
      "ate": 1836,
      "av": 1837,
      "ak": 1838,
      "our": 1839,
      "Î¿": 1840,
      "ÃŃ": 1841,
      "Î±": 1842,
      "Ġas": 1843,
      "Ġan": 1844,
      "Ð¼": 1845,
      "ĠJ": 1846,
      "Ã¡": 1847,
      "Ġla": 1848,
      "ov": 1849,
      "op": 1850,
      "Ð´": 1851,
      "ä¸": 1852,
      "ort": 1853,
      "Ñĸ": 1854,
      "ap": 1855,
      "ĊĠĠĠ": 1856,
      "Ġ=": 1857,
      "ub": 1858,
      "ĊĠĠĠĠĠĠĠĠ": 1859,
      "ant": 1860,
      "Ġwh": 1861,
      "Ġì": 1862,
      "ĠØ": 1863,
      "ĠO": 1864,
      "Ġwith": 1865,
      "ĠK": 1866,
      "Ã³": 1867,
      "ĊĠ": 1868,
      "art": 1869,
      "Î¹": 1870,
      "se": 1871,
      "up": 1872,
      "ill": 1873,
      "ÑĮ": 1874,
      "Ġthat": 1875,
      "ht": 1876,
      "ÑģÑĤ": 1877,
      "Ġqu": 1878,
      "ud": 1879,
      "Ġun": 1880,
      "Ñĭ": 1881,
      "og": 1882,
      "end": 1883,
      "ĠÐ¿": 1884,
      "Ġle": 1885,
      "Ä±": 1886,
      "ÙĦ": 1887,
      "Ġor": 1888,
      "ere": 1889,
      "ĊĠĠĠĠĠĠĠ": 1890,
      "ĠÐ²": 1891,
      "ue": 1892,
      "Î½": 1893,
      "Ġit": 1894,
      "Ġex": 1895,
      "ĠThe": 1896,
      "áº": 1897,
      "Ġwas": 1898,
      "ass": 1899,
      "ĠÃ": 1900,
      "ver": 1901,
      "ang": 1902,
      "ain": 1903,
      "ip": 1904,
      "----": 1905,
      "ng": 1906,
      "Ġch": 1907,
      "ĠV": 1908,
      "âĢĵ": 1909,
      "ÙĨ": 1910,
      "rom": 1911,
      "Ġj": 1912,
      "Ø±": 1913,
      "'s": 1914,
      "Ġat": 1915,
      "iz": 1916,
      "ĠU": 1917,
      "ï¼Į": 1918,
      "Ġhe": 1919,
      "Ġpr": 1920,
      "ame": 1921,
      "Îµ": 1922,
      "ment": 1923,
      "##": 1924,
      "Ñĩ": 1925,
      "ÑĢÐ°": 1926,
      "ard": 1927,
      ");": 1928,
      "ÙĪ": 1929,
      "ity": 1930,
      "pt": 1931,
      "Ġtr": 1932,
      "Ġyou": 1933,
      "×Ļ": 1934,
      "Ùħ": 1935,
      "Ġ{": 1936,
      "Ġne": 1937,
      "ies": 1938,
      "ine": 1939,
      "ÐµÐ½": 1940,
      "=\"": 1941,
      "ber": 1942,
      "Ġby": 1943,
      "Ð¾Ð²": 1944,
      "Ġ-": 1945,
      "tr": 1946,
      "ell": 1947,
      "ik": 1948,
      "pl": 1949,
      "ne": 1950,
      "Ð¹": 1951,
      "ost": 1952,
      "Ïģ": 1953,
      "all": 1954,
      "Ġare": 1955,
      "ial": 1956,
      "ĉĉ": 1957,
      "ÛĮ": 1958,
      "ore": 1959,
      "ust": 1960,
      "×ķ": 1961,
      "port": 1962,
      "Ġcl": 1963,
      "//": 1964,
      "</": 1965,
      "de": 1966,
      "ãĢĤ": 1967,
      "ìĿ": 1968,
      "),": 1969,
      "ans": 1970,
      "ĠÑģ": 1971,
      "ich": 1972,
      "ĠĊ": 1973,
      "Ñħ": 1974,
      "Ïĥ": 1975,
      "Ġdo": 1976,
      "Ġz": 1977,
      "ive": 1978,
      "äº": 1979,
      "ld": 1980,
      "Ð·": 1981,
      "ire": 1982,
      "Ð¿": 1983,
      "ure": 1984,
      "æľ": 1985,
      "age": 1986,
      "Ġ*": 1987,
      "Ġfrom": 1988,
      "Ġë": 1989,
      "cl": 1990,
      "ok": 1991,
      "io": 1992,
      "ack": 1993,
      "Ġpl": 1994,
      "ction": 1995,
      "ast": 1996,
      "ÐµÑĢ": 1997,
      "Ð°Ð½": 1998,
      "ord": 1999,
      "ec": 2000,
      "ĠÄ": 2001,
      "per": 2002,
      "Ġdes": 2003,
      "und": 2004,
      "Ġus": 2005,
      "ult": 2006,
      "ÏĤ": 2007,
      "×ķ×": 2008,
      "ÙĬ": 2009,
      "ff": 2010,
      "ong": 2011,
      "Ã§": 2012,
      "Ø§Ø": 2013,
      "ile": 2014,
      ").": 2015,
      "ight": 2016,
      "pr": 2017,
      "çļ": 2018,
      "ĠCh": 2019,
      "ĠIn": 2020,
      "orm": 2021,
      "Ð±": 2022,
      "Ġpar": 2023,
      "Î·": 2024,
      "to": 2025,
      "×Ļ×": 2026,
      "ib": 2027,
      "ens": 2028,
      "uc": 2029,
      "Ð³": 2030,
      "ĠÐ½": 2031,
      "å¹": 2032,
      "ice": 2033,
      "çļĦ": 2034,
      "ge": 2035,
      "Ùĩ": 2036,
      "Ãł": 2037,
      "ian": 2038,
      "ÏĢ": 2039,
      "\",": 2040,
      "rou": 2041,
      "åħ": 2042,
      "Ġel": 2043,
      "Ïħ": 2044,
      "åı": 2045,
      "Ġ}": 2046,
      "ob": 2047,
      "nt": 2048,
      "ĠSt": 2049,
      "ave": 2050,
      "act": 2051,
      "con": 2052,
      "Âł": 2053,
      "à¤¾": 2054,
      "ect": 2055,
      "ign": 2056,
      "int": 2057,
      "ah": 2058,
      "ind": 2059,
      "Ð¾Ð´": 2060,
      "ug": 2061,
      "âĢĶ": 2062,
      "Ġcan": 2063,
      "Ð¾ÑĢ": 2064,
      "Äĥ": 2065,
      "ãĢģ": 2066,
      "ĠTh": 2067,
      "Ġnot": 2068,
      "ach": 2069,
      "Ġad": 2070,
      "ĠÐ¸": 2071,
      "Ġest": 2072,
      "Ã¼": 2073,
      "ide": 2074,
      "Ġthis": 2075,
      "Ġwe": 2076,
      "ÑĨ": 2077,
      "Ã£": 2078,
      "able": 2079,
      "urn": 2080,
      "com": 2081,
      "ĠÐ¾": 2082,
      "Ġsh": 2083,
      "erv": 2084,
      "out": 2085,
      "are": 2086,
      "ĊĠĠĠĠĠĠĠĠĠĠĠ": 2087,
      "Ð¾Ð¼": 2088,
      "ork": 2089,
      "ary": 2090,
      "ĠÏĦ": 2091,
      "Ġyour": 2092,
      "**": 2093,
      "ÑģÐº": 2094,
      "Ġcomp": 2095,
      "ated": 2096,
      "Ġ||": 2097,
      "ace": 2098,
      "ime": 2099,
      "Ø§ÙĦ": 2100,
      "Ġim": 2101,
      "Ġper": 2102,
      "Ġar": 2103,
      "Ð¾Ð»": 2104,
      "å¤": 2105,
      "Ð°Ð»": 2106,
      "Îº": 2107,
      "Ġque": 2108,
      "Ġte": 2109,
      "ĠÐº": 2110,
      "ions": 2111,
      "Ġres": 2112,
      "Ġet": 2113,
      "ite": 2114,
      "ĠÄĳ": 2115,
      "ear": 2116,
      "ata": 2117,
      "ier": 2118,
      "Î»": 2119,
      "Ø¯": 2120,
      "ĠY": 2121,
      "Øª": 2122,
      "ase": 2123,
      "å¹´": 2124,
      "Ġem": 2125,
      "ĊĊ": 2126,
      "Ð¾Ð³": 2127,
      "Ġdi": 2128,
      "ĠâĢĵ": 2129,
      "fer": 2130,
      "Ġap": 2131,
      "ÅĤ": 2132,
      "Ġab": 2133,
      "ru": 2134,
      "lic": 2135,
      "ey": 2136,
      "Ġcont": 2137,
      "ran": 2138,
      "so": 2139,
      "ep": 2140,
      "Ã£o": 2141,
      "åľ": 2142,
      "Ġhave": 2143,
      "ont": 2144,
      "Ñİ": 2145,
      "li": 2146,
      "xt": 2147,
      "ern": 2148,
      "\">": 2149,
      "ci": 2150,
      "az": 2151,
      "Î¯": 2152,
      "ä»": 2153,
      "Ġ<": 2154,
      "Ġ'": 2155,
      "ĠÐ´": 2156,
      "Ġall": 2157,
      "In": 2158,
      "sp": 2159,
      "Ġac": 2160,
      "Ġsu": 2161,
      "The": 2162,
      "ÐµÐ»": 2163,
      "ath": 2164,
      "Ġro": 2165,
      "Ð¾Ð½": 2166,
      "Ġdel": 2167,
      "Ġ:": 2168,
      "à¤°": 2169,
      "form": 2170,
      "eg": 2171,
      "ry": 2172,
      "à¥į": 2173,
      "amp": 2174,
      "ical": 2175,
      "ãģ®": 2176,
      "Ġclass": 2177,
      "ome": 2178,
      "ence": 2179,
      "ode": 2180,
      "ph": 2181,
      "rit": 2182,
      "Î¼": 2183,
      "ert": 2184,
      "ÑĪ": 2185,
      "æĸ": 2186,
      "one": 2187,
      "Ð½Ð¸": 2188,
      "ype": 2189,
      "ll": 2190,
      "Ġwill": 2191,
      "res": 2192,
      "çĶ": 2193,
      "ew": 2194,
      "ous": 2195,
      "ĠÐ½Ð°": 2196,
      "()": 2197,
      "Ġif": 2198,
      "turn": 2199,
      "mer": 2200,
      "Ð¶": 2201,
      "å®": 2202,
      "ric": 2203,
      "Ġpart": 2204,
      "ĠUn": 2205,
      "ual": 2206,
      "ance": 2207,
      "íķ": 2208,
      "\":": 2209,
      "ÑĢÐµ": 2210,
      "ÑĢÐ¸": 2211,
      "à¥ĩ": 2212,
      "Ġda": 2213,
      "get": 2214,
      "ĠÐ³": 2215,
      "åĲ": 2216,
      "åĪ": 2217,
      "ada": 2218,
      "ould": 2219,
      "du": 2220,
      "ition": 2221,
      "Ġhas": 2222,
      "Ã³n": 2223,
      "eb": 2224,
      "enc": 2225,
      "ðŁ": 2226,
      "ish": 2227,
      "æĹ": 2228,
      "ado": 2229,
      "ents": 2230,
      "col": 2231,
      "tern": 2232,
      "gh": 2233,
      "ÏĮ": 2234,
      "ations": 2235,
      "cess": 2236,
      "Ġhis": 2237,
      "Ġê": 2238,
      "ark": 2239,
      "Î¿Ïħ": 2240,
      "Ã¨": 2241,
      "ild": 2242,
      "ĠÃł": 2243,
      "ðŁĩ": 2244,
      "ĠÂ": 2245,
      "ps": 2246,
      "ĠÐ¼": 2247,
      "ond": 2248,
      "ail": 2249,
      "iss": 2250,
      "any": 2251,
      "ĠÑĤ": 2252,
      "ĠĠĠĠĠĠĠ": 2253,
      "Ġ[": 2254,
      "×¨": 2255,
      "ther": 2256,
      "que": 2257,
      "ĠØ§ÙĦ": 2258,
      "ft": 2259,
      "--------": 2260,
      "ory": 2261,
      "ä½": 2262,
      "ĠÐ·": 2263,
      "ors": 2264,
      "Ġpre": 2265,
      "Æ°": 2266,
      "ĠĠĠĠĠĠĠĠĠĠĠĠĠĠĠĠ": 2267,
      "Ġout": 2268,
      "ade": 2269,
      "Ð½Ñĭ": 2270,
      "..": 2271,
      "ek": 2272,
      "ock": 2273,
      "Ġwhich": 2274,
      "lo": 2275,
      "Ċĉĉ": 2276,
      "Ãª": 2277,
      "Ġes": 2278,
      "ve": 2279,
      "Ġund": 2280,
      "Ð°ÑĤ": 2281,
      "ount": 2282,
      "ake": 2283,
      "inal": 2284,
      "ï¼Ī": 2285,
      "ï¼ī": 2286,
      "ari": 2287,
      "own": 2288,
      "au": 2289,
      "che": 2290,
      "gr": 2291,
      "Ð¾Ð¹": 2292,
      "Î¬": 2293,
      "ÐµÑĤ": 2294,
      "åĽ": 2295,
      "Ċĉ": 2296,
      "Ġno": 2297,
      "Ġdis": 2298,
      "ÅŁ": 2299,
      "vel": 2300,
      "ĠÃ©": 2301,
      "sk": 2302,
      "å°": 2303,
      "Ġnew": 2304,
      "Ġi": 2305,
      "pro": 2306,
      "Ġme": 2307,
      "åį": 2308,
      "ublic": 2309,
      "ick": 2310,
      "Ã¢": 2311,
      "ĠÐ±": 2312,
      "Ġtheir": 2313,
      "ject": 2314,
      "elf": 2315,
      "Ġup": 2316,
      "ai": 2317,
      "ÑĦ": 2318,
      "Ùģ": 2319,
      "ĠAr": 2320,
      "Ð¾Ð³Ð¾": 2321,
      "Ġsp": 2322,
      "ìĹ": 2323,
      "Ķ×": 2324,
      "iel": 2325,
      "Ġbut": 2326,
      "les": 2327,
      "Ġalso": 2328,
      "ann": 2329,
      "erm": 2330,
      "aj": 2331,
      "ĠIt": 2332,
      "Ġdu": 2333,
      "aw": 2334,
      "ement": 2335,
      "åŃ": 2336,
      "à¤¿": 2337,
      "Ø³": 2338,
      "ĊĠĠĠĠĠ": 2339,
      "ater": 2340,
      "ĠAl": 2341,
      "ook": 2342,
      "æĺ": 2343,
      "eng": 2344,
      "ÄĽ": 2345,
      "ale": 2346,
      "Ġer": 2347,
      "Ð¸ÑĤ": 2348,
      "ss": 2349,
      "Ġcol": 2350,
      "oy": 2351,
      "me": 2352,
      "led": 2353,
      "ica": 2354,
      "Ð¸Ð½": 2355,
      "ose": 2356,
      "ound": 2357,
      "ĠZ": 2358,
      "ung": 2359,
      "ij": 2360,
      "ĠÙħ": 2361,
      "Ġso": 2362,
      "pec": 2363,
      "ĠÂ«": 2364,
      "Ġent": 2365,
      "oth": 2366,
      "ex": 2367,
      "irst": 2368,
      "Ġum": 2369,
      "Ġna": 2370,
      "Ġone": 2371,
      "::": 2372,
      "Ø¨": 2373,
      "ĠMar": 2374,
      "ree": 2375,
      "emb": 2376,
      "Ġph": 2377,
      "old": 2378,
      "ember": 2379,
      "Ġwere": 2380,
      "ese": 2381,
      "×ľ": 2382,
      "Ġreturn": 2383,
      "ëĭ": 2384,
      "par": 2385,
      "Ð»Ð°": 2386,
      "ings": 2387,
      "cri": 2388,
      "Ġ$": 2389,
      "land": 2390,
      "ink": 2391,
      "Ø§ÙĨ": 2392,
      "ais": 2393,
      "Ġob": 2394,
      "Ġag": 2395,
      "ĠHe": 2396,
      "Ġev": 2397,
      "ool": 2398,
      "Ġwork": 2399,
      "ull": 2400,
      "clud": 2401,
      "Ġpor": 2402,
      "Ð°ÑĢ": 2403,
      "ef": 2404,
      "Â»": 2405,
      "ãĥ¼": 2406,
      "row": 2407,
      "Ġmore": 2408,
      "ev": 2409,
      "ener": 2410,
      "Ġà¤ķ": 2411,
      "Ġthey": 2412,
      "Ġ&": 2413,
      "Ð¾Ñģ": 2414,
      "Ð¸Ñı": 2415,
      "ente": 2416,
      "ons": 2417,
      "Ġpe": 2418,
      "ery": 2419,
      "Ġcomm": 2420,
      "==": 2421,
      "anc": 2422,
      "we": 2423,
      "ÎŃ": 2424,
      "ood": 2425,
      "ates": 2426,
      "ivers": 2427,
      "ina": 2428,
      "sh": 2429,
      "igh": 2430,
      "atch": 2431,
      "let": 2432,
      "Ø©": 2433,
      "ŀ×": 2434,
      "alue": 2435,
      "Ġop": 2436,
      "Ġam": 2437,
      "Ð¾ÑĤ": 2438,
      "ific": 2439,
      "ĠØ¨": 2440,
      "orn": 2441,
      "Ð½Ð¾": 2442,
      "lect": 2443,
      "div": 2444,
      "St": 2445,
      "ĠLe": 2446,
      "ĠÑĥ": 2447,
      "ĊĠĠĠĠĠĠĠĠĠĠĠĠĠĠĠ": 2448,
      "ãģ«": 2449,
      "ational": 2450,
      "iÃ³n": 2451,
      "Ð¸Ð¹": 2452,
      "Î³": 2453,
      "æĪ": 2454,
      "ilm": 2455,
      "ional": 2456,
      "yst": 2457,
      "Ġwho": 2458,
      "uk": 2459,
      "Ġget": 2460,
      "ize": 2461,
      "Ïī": 2462,
      "ĠÏĥ": 2463,
      "å¸": 2464,
      "ĊĊĠĠĠ": 2465,
      "oh": 2466,
      "put": 2467,
      "ely": 2468,
      "ca": 2469,
      "Ġau": 2470,
      "ĠCom": 2471,
      "use": 2472,
      "cre": 2473,
      "Ġí": 2474,
      "Ġ.": 2475,
      "Ġtime": 2476,
      "Ġreg": 2477,
      "à¤Ĥ": 2478,
      "Ġder": 2479,
      "Ġstr": 2480,
      "ise": 2481,
      "Ġpo": 2482,
      "Ã¶": 2483,
      "è¡": 2484,
      "ÅĻ": 2485,
      "Ġsup": 2486,
      "Æ°á»": 2487,
      "å¾": 2488,
      "low": 2489,
      "nh": 2490,
      "à¥Ģ": 2491,
      "ÐºÐ°": 2492,
      "ient": 2493,
      "Ġ//": 2494,
      "Ġ×Ķ×": 2495,
      "fter": 2496,
      "ck": 2497,
      "ze": 2498,
      "Ġyear": 2499,
      "ix": 2500,
      "ays": 2501,
      "Ġav": 2502,
      "Ġcre": 2503,
      "à¤¨": 2504,
      "Ġgr": 2505,
      "Ġlos": 2506,
      "str": 2507,
      "Ġrec": 2508,
      "Ð»Ð¸": 2509,
      "Ġserv": 2510,
      "ien": 2511,
      "ä¹": 2512,
      "ĠÐ¡": 2513,
      "æĹ¥": 2514,
      "Ġover": 2515,
      "Ġhad": 2516,
      "Ġits": 2517,
      "ĠâĢĶ": 2518,
      "Ġcons": 2519,
      "äºº": 2520,
      "Ġass": 2521,
      "Ġset": 2522,
      "Ġprov": 2523,
      "Ú©": 2524,
      "ax": 2525,
      "Ġtra": 2526,
      "åĬ": 2527,
      "Ã©s": 2528,
      "Ã§Ã£o": 2529,
      "Ñī": 2530,
      "Ġ/": 2531,
      "olog": 2532,
      "Ã½": 2533,
      "ä¸Ń": 2534,
      "ÐµÐ¼": 2535,
      "ied": 2536,
      "Ġdef": 2537,
      "eth": 2538,
      "arg": 2539,
      "na": 2540,
      "Î®": 2541,
      "ĠÎº": 2542,
      "Ġother": 2543,
      "wo": 2544,
      "tt": 2545,
      "Ġfirst": 2546,
      "Ã´": 2547,
      "'t": 2548,
      "ĠÐ°": 2549,
      "ìĿ´": 2550,
      "ĳ×": 2551,
      "Ġinter": 2552,
      "ĠÏĢ": 2553,
      "Ġil": 2554,
      "ins": 2555,
      "è¿": 2556,
      "ä¸Ģ": 2557,
      "ìĿĺ": 2558,
      "ÄĻ": 2559,
      "à¤¤": 2560,
      "Ġbu": 2561,
      "Ġint": 2562,
      "><": 2563,
      "ption": 2564,
      "ĠÎ±": 2565,
      "ho": 2566,
      "co": 2567,
      "Ġour": 2568,
      "Ġpara": 2569,
      "span": 2570,
      "Ġpol": 2571,
      "iew": 2572,
      "Ġher": 2573,
      "éĢ": 2574,
      "Ġfe": 2575,
      "ĠPro": 2576,
      "ĠSe": 2577,
      "der": 2578,
      "æľĪ": 2579,
      "->": 2580,
      "ÙĤ": 2581,
      "Ġser": 2582,
      "Ġact": 2583,
      "Äħ": 2584,
      "Ġpublic": 2585,
      "Ġoff": 2586,
      "Ãº": 2587,
      "://": 2588,
      "(\"": 2589,
      "ëĭ¤": 2590,
      "åĮ": 2591,
      "yn": 2592,
      "pos": 2593,
      "la": 2594,
      "Ġwhen": 2595,
      "ler": 2596,
      "ĠÙĪ": 2597,
      "ular": 2598,
      "Ġloc": 2599,
      "att": 2600,
      "ĠÐĴ": 2601,
      "ĊĠĠĠĠĠĠĠĠĠĠĠĠĠĠĠĠ": 2602,
      "Ġvan": 2603,
      "Î¹Îº": 2604,
      "Re": 2605,
      "Ġ`": 2606,
      "Ġpos": 2607,
      "å·": 2608,
      "ÈĻ": 2609,
      "æĿ": 2610,
      "Ð½Ð°": 2611,
      "amb": 2612,
      "Ġabout": 2613,
      "á»Ļ": 2614,
      "ank": 2615,
      "çī": 2616,
      "Ġany": 2617,
      "ĠAn": 2618,
      "Th": 2619,
      "Ġles": 2620,
      "Ġconst": 2621,
      "ike": 2622,
      "Î±Î¹": 2623,
      "ä¼": 2624,
      "Ø¹": 2625,
      "ts": 2626,
      "man": 2627,
      "Ġ--": 2628,
      "Ã©r": 2629,
      "gan": 2630,
      "erson": 2631,
      "Ġbeen": 2632,
      "Ð¾Ðº": 2633,
      "ui": 2634,
      "ãĤĭ": 2635,
      "Ġve": 2636,
      "ãģŁ": 2637,
      "ĠSh": 2638,
      "å¤§": 2639,
      "iá»": 2640,
      "ward": 2641,
      "Ġsa": 2642,
      "ÄŁ": 2643,
      "ÑģÑı": 2644,
      "Ġform": 2645,
      "Ġinclud": 2646,
      "Ġman": 2647,
      "åľ¨": 2648,
      "ÐºÐ¸": 2649,
      "ãĥ³": 2650,
      "áº¿": 2651,
      "ym": 2652,
      "Ġsur": 2653,
      "à¤ķ": 2654,
      "ĠRe": 2655,
      "oun": 2656,
      "lement": 2657,
      "rib": 2658,
      "ogra": 2659,
      "×Ķ": 2660,
      "ten": 2661,
      "als": 2662,
      "Ġadd": 2663,
      "ÈĽ": 2664,
      "round": 2665,
      "Ð¸Ð¸": 2666,
      "ty": 2667,
      "pect": 2668,
      "po": 2669,
      "Ġrel": 2670,
      "Ġsub": 2671,
      "ĠQ": 2672,
      "go": 2673,
      "ÑģÑĤÐ²": 2674,
      "Ïĩ": 2675,
      "ident": 2676,
      "å±": 2677,
      "ict": 2678,
      "ys": 2679,
      "###": 2680,
      "ĠÑĩ": 2681,
      "``": 2682,
      "ove": 2683,
      "lar": 2684,
      "Ġaut": 2685,
      "ash": 2686,
      "Ð°Ð²": 2687,
      "éĥ": 2688,
      "Ã¤": 2689,
      "wn": 2690,
      "Ġplay": 2691,
      "ator": 2692,
      "ta": 2693,
      "Ġvo": 2694,
      "Ġmod": 2695,
      "atur": 2696,
      "ield": 2697,
      "Ġra": 2698,
      "ited": 2699,
      "ìĹĲ": 2700,
      "ÐµÐ´": 2701,
      "Ãªn": 2702,
      "ĠÐļ": 2703,
      "éĩ": 2704,
      "Ġ@": 2705,
      "Ġsc": 2706,
      "Ġinto": 2707,
      "ĠThis": 2708,
      "ref": 2709,
      "',": 2710,
      "min": 2711,
      "htt": 2712,
      "son": 2713,
      "Ïį": 2714,
      "æŃ": 2715,
      "ĠTr": 2716,
      "ico": 2717,
      "åº": 2718,
      "Ġche": 2719,
      "Ġnum": 2720,
      "ĠDe": 2721,
      "nÃŃ": 2722,
      "Ð¼Ð¸": 2723,
      "ê³": 2724,
      "Ġsome": 2725,
      "Ð¸Ðµ": 2726,
      "ames": 2727,
      "ange": 2728,
      "Ġmay": 2729,
      "ĠÑĢ": 2730,
      "Ġkn": 2731,
      "ìĦ": 2732,
      "Ġgo": 2733,
      "èĢ": 2734,
      "Å¾": 2735,
      "Ġmon": 2736,
      "itt": 2737,
      "áº¡": 2738,
      "éģ": 2739,
      "its": 2740,
      "ara": 2741,
      "Ġed": 2742,
      "Ġ+": 2743,
      "td": 2744,
      "ãģ¨": 2745,
      "ystem": 2746,
      "Ġthem": 2747,
      "ĠÐŁ": 2748,
      "amil": 2749,
      "ique": 2750,
      "Î´": 2751,
      "ased": 2752,
      "ble": 2753,
      "ÑģÑĮ": 2754,
      "ĠNew": 2755,
      "hed": 2756,
      "](": 2757,
      "ÃŃa": 2758,
      "Ùĥ": 2759,
      "ĠX": 2760,
      "ëĬ": 2761,
      "åĽ½": 2762,
      "ĠðŁĩ": 2763,
      "ren": 2764,
      "air": 2765,
      "ÑĹ": 2766,
      "Ð¸Ð»": 2767,
      "import": 2768,
      "name": 2769,
      "orld": 2770,
      "ton": 2771,
      "æī": 2772,
      "Ġname": 2773,
      "Ġdif": 2774,
      "ãģ¯": 2775,
      "ato": 2776,
      "Ġ#": 2777,
      "ision": 2778,
      "Con": 2779,
      "Ġtrans": 2780,
      "Ġdur": 2781,
      "Ġthere": 2782,
      "Ġuna": 2783,
      "ãĤĴ": 2784,
      "ĠÎµ": 2785,
      "ĠÃ®": 2786,
      "Ġnh": 2787,
      "Ġbet": 2788,
      "Ġuse": 2789,
      "Ġcomo": 2790,
      "Ã©e": 2791,
      "arn": 2792,
      "ating": 2793,
      "ĠÐ³Ð¾Ð´": 2794,
      "ĠLa": 2795,
      "zy": 2796,
      "Ġbr": 2797,
      "ĠPr": 2798,
      "Ø§ÛĮ": 2799,
      "ë¡": 2800,
      "pon": 2801,
      "ox": 2802,
      "æĶ": 2803,
      "ĠCon": 2804,
      "text": 2805,
      "Ġinst": 2806,
      "une": 2807,
      "Ġco": 2808,
      "ople": 2809,
      "Ġfo": 2810,
      "red": 2811,
      "ma": 2812,
      "ãģĹ": 2813,
      "ÐµÐ¹": 2814,
      "uch": 2815,
      "Ġtwo": 2816,
      "ëĬĶ": 2817,
      "Ġneed": 2818,
      "Ð°Ðº": 2819,
      "ĠØ¯": 2820,
      "Ñĳ": 2821,
      "ative": 2822,
      "Ġprodu": 2823,
      "Ġinv": 2824,
      "Ġcar": 2825,
      "inc": 2826,
      "ĠÐ¿ÑĢ": 2827,
      "ĠÑĢÐ°": 2828,
      "ues": 2829,
      "tring": 2830,
      "å¼": 2831,
      "ics": 2832,
      "ĠFran": 2833,
      "set": 2834,
      "ÐµÐ²": 2835,
      "ida": 2836,
      "åĨ": 2837,
      "app": 2838,
      "ç»": 2839,
      "ny": 2840,
      "IN": 2841,
      "ror": 2842,
      "Ġatt": 2843,
      "();": 2844,
      "ĠBr": 2845,
      "Å¡": 2846,
      "Ð½Ñı": 2847,
      "Ġpres": 2848,
      "Ġfun": 2849,
      "Ġrem": 2850,
      "ido": 2851,
      "ando": 2852,
      "uro": 2853,
      "cc": 2854,
      "Ġspec": 2855,
      "Pro": 2856,
      "à¤¯": 2857,
      "Ĳ×": 2858,
      "></": 2859,
      "ER": 2860,
      "irect": 2861,
      "Ġmin": 2862,
      "Ã±": 2863,
      "rough": 2864,
      "ĠÏĦÎ·": 2865,
      "Ġmet": 2866,
      "à¥ĭ": 2867,
      "ral": 2868,
      "uss": 2869,
      "Ġonly": 2870,
      "Ġend": 2871,
      "Ġmost": 2872,
      "æķ": 2873,
      "áº£": 2874,
      ".\"": 2875,
      "Ġbl": 2876,
      "çĽ": 2877,
      "reat": 2878,
      "Ð¾Ð±": 2879,
      "fo": 2880,
      "ĠSch": 2881,
      "åĩ": 2882,
      "Ø´": 2883,
      "):": 2884,
      "erd": 2885,
      "****": 2886,
      "ices": 2887,
      "ĠEn": 2888,
      "Ø§Ø±": 2889,
      "ĠÎ¼": 2890,
      "ute": 2891,
      "Ġwould": 2892,
      "Ex": 2893,
      "ĠAd": 2894,
      "ities": 2895,
      "ĠÐľ": 2896,
      "ados": 2897,
      "ana": 2898,
      "Ġafter": 2899,
      "br": 2900,
      "be": 2901,
      "uit": 2902,
      "ãģ¦": 2903,
      "ider": 2904,
      "ÑĢÑĥ": 2905,
      "ces": 2906,
      "ãģĦ": 2907,
      "Ð¾ÑģÑĤ": 2908,
      "oci": 2909,
      "Ġrequ": 2910,
      "vent": 2911,
      "ka": 2912,
      "))": 2913,
      "roup": 2914,
      "Ġdie": 2915,
      "ĠCl": 2916,
      "Ġson": 2917,
      "æ°": 2918,
      "ino": 2919,
      "ãģ§": 2920,
      "łģ": 2921,
      "Ġmed": 2922,
      "éĻ": 2923,
      "Ġthan": 2924,
      "ĠvÃł": 2925,
      "Ð¡": 2926,
      "æĺ¯": 2927,
      "ument": 2928,
      "yle": 2929,
      "ĠWe": 2930,
      "ml": 2931,
      "âĢĻ": 2932,
      "ê°": 2933,
      "Ġter": 2934,
      "ĠInd": 2935,
      "ante": 2936,
      "á»§": 2937,
      "âĢĮ": 2938,
      "×¨×": 2939,
      "Å¼": 2940,
      "Ġhel": 2941,
      "ible": 2942,
      "å¥": 2943,
      "Ġunder": 2944,
      "line": 2945,
      "ÏĦÎ±": 2946,
      "Ġdata": 2947,
      "ally": 2948,
      "inn": 2949,
      "ĠCol": 2950,
      "urs": 2951,
      "__": 2952,
      "urr": 2953,
      "Ð»Ñı": 2954,
      "ĠAmer": 2955,
      "ÏĨ": 2956,
      "ìŀ": 2957,
      "Î¸": 2958,
      "uy": 2959,
      "à¤¸": 2960,
      "Ġstud": 2961,
      "ç§": 2962,
      "ë¡ľ": 2963,
      "fig": 2964,
      "ĠdÃ©": 2965,
      "ĠWh": 2966,
      "atic": 2967,
      "ife": 2968,
      "êµ": 2969,
      "Ġmy": 2970,
      "ason": 2971,
      "ource": 2972,
      "à¤²": 2973,
      "Ġhigh": 2974,
      "over": 2975,
      "å½": 2976,
      "ĠÑģÑĤ": 2977,
      "ole": 2978,
      "Ġtem": 2979,
      "ams": 2980,
      "Ġ---": 2981,
      "Ġx": 2982,
      "á»ĳ": 2983,
      "Ġdr": 2984,
      "ha": 2985,
      "Ð¸Ð²": 2986,
      "els": 2987,
      "ism": 2988,
      "Äį": 2989,
      "ãģĮ": 2990,
      "Ġhow": 2991,
      "Ġ×ĳ×": 2992,
      "Ġthrough": 2993,
      "ama": 2994,
      "ĠÃ®n": 2995,
      "ĠEl": 2996,
      "Ð¸Ñĩ": 2997,
      "ĠPl": 2998,
      "ars": 2999,
      "En": 3000,
      "ĠìĿ": 3001,
      "ior": 3002,
      "ele": 3003,
      "https": 3004,
      "aciÃ³n": 3005,
      "duc": 3006,
      "hip": 3007,
      "Ġcent": 3008,
      "Ġshe": 3009,
      "of": 3010,
      "ĠÙģ": 3011,
      "ĠYou": 3012,
      "ven": 3013,
      "×Ļ×Ŀ": 3014,
      "Ġart": 3015,
      "ç«": 3016,
      "ament": 3017,
      "orth": 3018,
      "ĠâĢ": 3019,
      "Name": 3020,
      "ëħ": 3021,
      "Ġpeople": 3022,
      "Ġself": 3023,
      "cent": 3024,
      "pres": 3025,
      "Ġlike": 3026,
      "Ġdans": 3027,
      "ÅĽ": 3028,
      "Ch": 3029,
      "aut": 3030,
      "Ġind": 3031,
      "ature": 3032,
      "ough": 3033,
      "ages": 3034,
      "Ġsi": 3035,
      "ros": 3036,
      "åĴ": 3037,
      "ON": 3038,
      "ger": 3039,
      "å¯": 3040,
      "æ³": 3041,
      "ÐŁ": 3042,
      "Ġdist": 3043,
      "Ġdan": 3044,
      "pre": 3045,
      "ĠÐ·Ð°": 3046,
      "Ġlo": 3047,
      "por": 3048,
      "za": 3049,
      "Ġlist": 3050,
      "velop": 3051,
      "ĠOr": 3052,
      "Ġfilm": 3053,
      "ĠÏĦÎ¿Ïħ": 3054,
      "Ġmen": 3055,
      "Ä±n": 3056,
      "Ġfinal": 3057,
      "Ġacc": 3058,
      "Ġmake": 3059,
      "ĠGr": 3060,
      "©×": 3061,
      "Ġwhere": 3062,
      "ane": 3063,
      "ÐµÐº": 3064,
      "ti": 3065,
      "Ð¾Ð·": 3066,
      "ple": 3067,
      "Ġfol": 3068,
      "Ġpop": 3069,
      "ĠPar": 3070,
      "ĠÐĲ": 3071,
      "Ñį": 3072,
      "Ã¢n": 3073,
      "ĠUnivers": 3074,
      "íķĺ": 3075,
      "×ķ×ª": 3076,
      "Ġcap": 3077,
      "ux": 3078,
      "Ġà¤¸": 3079,
      "Ġback": 3080,
      "Ġever": 3081,
      "ince": 3082,
      "èĩ": 3083,
      "ores": 3084,
      "ility": 3085,
      "Ġwell": 3086,
      "ĠCar": 3087,
      "ray": 3088,
      "ľ×": 3089,
      "Ġdec": 3090,
      "ÏĦÎ¿": 3091,
      "era": 3092,
      "è®": 3093,
      "ĠSp": 3094,
      "||": 3095,
      "æľī": 3096,
      "ë¦": 3097,
      "itle": 3098,
      "Ġused": 3099,
      "Î¹Î±": 3100,
      "Ã©m": 3101,
      "ouse": 3102,
      "ella": 3103,
      "Ð»ÑĮ": 3104,
      "ĠPh": 3105,
      "åĴĮ": 3106,
      "Ġlas": 3107,
      "Ġperson": 3108,
      "by": 3109,
      "ican": 3110,
      "ĠAnd": 3111,
      "ÐµÐ»ÑĮ": 3112,
      "Ġmar": 3113,
      "ats": 3114,
      "ruct": 3115,
      "è¡Į": 3116,
      "ĠÐ»": 3117,
      "Ġthen": 3118,
      "Ġwhat": 3119,
      "ower": 3120,
      "Ġkh": 3121,
      "Ġyears": 3122,
      "ĊĊĠĠĠĠĠĠĠ": 3123,
      "ii": 3124,
      "ait": 3125,
      "ero": 3126,
      "outh": 3127,
      "Ġjust": 3128,
      "Ġlong": 3129,
      "ask": 3130,
      "è¯": 3131,
      "ines": 3132,
      "plic": 3133,
      "Type": 3134,
      "Com": 3135,
      "Ð°Ð»ÑĮ": 3136,
      "Ġsol": 3137,
      "Ġhref": 3138,
      "Ġstart": 3139,
      "ä¸º": 3140,
      "Ġimport": 3141,
      "Ġext": 3142,
      "ĠAs": 3143,
      "Ġresult": 3144,
      "ĠÐ¾Ð±": 3145,
      "type": 3146,
      "æł": 3147,
      "erg": 3148,
      "Ar": 3149,
      "éĽ": 3150,
      "fore": 3151,
      "Ïİ": 3152,
      "Ġhelp": 3153,
      "ĊĊĠ": 3154,
      "Ġprof": 3155,
      "ets": 3156,
      "way": 3157,
      "ì§": 3158,
      "ohn": 3159,
      "Ġ*/": 3160,
      "Ġprogr": 3161,
      "Ã©n": 3162,
      "mi": 3163,
      "lu": 3164,
      "ful": 3165,
      "iver": 3166,
      "AR": 3167,
      "ï¼ļ": 3168,
      "ron": 3169,
      "Ð¸Ñħ": 3170,
      "ĠFor": 3171,
      "Ġthese": 3172,
      "Ġfamil": 3173,
      "val": 3174,
      "Ġsch": 3175,
      "ke": 3176,
      "ãĤ¹": 3177,
      "Ġgener": 3178,
      "sc": 3179,
      "ution": 3180,
      "lection": 3181,
      "ÏģÎ±": 3182,
      "Ġ----": 3183,
      "ÑĸÐ²": 3184,
      "ł×": 3185,
      "cript": 3186,
      "ÈĻi": 3187,
      "Ġinform": 3188,
      "Ġcor": 3189,
      "ants": 3190,
      "ST": 3191,
      "vo": 3192,
      "\".": 3193,
      "à¤®": 3194,
      "ìł": 3195,
      "ØĮ": 3196,
      "Ġuma": 3197,
      "Ġvers": 3198,
      "Ġsim": 3199,
      "work": 3200,
      "Ġune": 3201,
      "read": 3202,
      "Ĥ¬": 3203,
      "ÏĦÎ·": 3204,
      "ëħĦ": 3205,
      "AT": 3206,
      "Ø¬": 3207,
      "Ġgu": 3208,
      "ìĭ": 3209,
      "æ²": 3210,
      "rop": 3211,
      "Res": 3212,
      "Ġsuch": 3213,
      "cond": 3214,
      "Ġca": 3215,
      "ital": 3216,
      "ĠØ§Ø": 3217,
      "bum": 3218,
      "åŃ¦": 3219,
      "chn": 3220,
      "ano": 3221,
      "åľ°": 3222,
      "Ġhet": 3223,
      "Ġval": 3224,
      "Ġbir": 3225,
      "rist": 3226,
      "Ú¯": 3227,
      "éĥ¨": 3228,
      "Ġvalue": 3229,
      "ĠAm": 3230,
      "ote": 3231,
      "Î¯Î±": 3232,
      "iness": 3233,
      "add": 3234,
      "ura": 3235,
      "ĠÐĳ": 3236,
      "|-": 3237,
      "åİ": 3238,
      "æµ": 3239,
      "ici": 3240,
      "Ġ</": 3241,
      "ë¥": 3242,
      "ãĥ¼ãĥ": 3243,
      "ress": 3244,
      "ĠÐ¿ÑĢÐ¸": 3245,
      "Ġmany": 3246,
      "Ð¸Ð¼": 3247,
      "ĠØª": 3248,
      "åī": 3249,
      "åĳ": 3250,
      "ĠÑĦ": 3251,
      "return": 3252,
      "yp": 3253,
      "Ġ,": 3254,
      "----------------": 3255,
      "ìľ": 3256,
      "Ġcare": 3257,
      "Ġtype": 3258,
      "enn": 3259,
      "ever": 3260,
      "ired": 3261,
      "ault": 3262,
      "mp": 3263,
      "bo": 3264,
      "ows": 3265,
      "Ã¼r": 3266,
      "æĽ": 3267,
      "ĠÏĦÎ¿": 3268,
      "Ð¸Ñģ": 3269,
      "org": 3270,
      "Ġexper": 3271,
      "Ġsign": 3272,
      "ØŃ": 3273,
      "ĠEx": 3274,
      "Ġmus": 3275,
      "ting": 3276,
      "ìĿĦ": 3277,
      "ãĤĮ": 3278,
      "áº¥": 3279,
      "Ã¡c": 3280,
      "ĠÐł": 3281,
      "Ġtest": 3282,
      "Ġcal": 3283,
      "ĊĠĠĠĠĠĠĠĠĠĠĠĠĠĠĠĠĠĠĠ": 3284,
      "ales": 3285,
      "cept": 3286,
      "Ġdon": 3287,
      "Ãµ": 3288,
      "ãģª": 3289,
      "idad": 3290,
      "Ġbus": 3291,
      "Ġke": 3292,
      "ĠĊĠ": 3293,
      "ĠIs": 3294,
      "áºŃ": 3295,
      "Ġsm": 3296,
      "Ġdem": 3297,
      "ĠÐ¿Ð¾": 3298,
      "ĠTe": 3299,
      "ader": 3300,
      "self": 3301,
      "Ġeen": 3302,
      "icip": 3303,
      "ãĥ»": 3304,
      "leg": 3305,
      "Ġfin": 3306,
      "rol": 3307,
      "íķľ": 3308,
      "('": 3309,
      "II": 3310,
      "ĠBl": 3311,
      "åĩº": 3312,
      "ione": 3313,
      "urrent": 3314,
      "Id": 3315,
      "Ġ!": 3316,
      "Ĭ¤": 3317,
      "ody": 3318,
      "Ġeff": 3319,
      "Ġfollow": 3320,
      "Ġbel": 3321,
      "ĠÎºÎ±Î¹": 3322,
      "Ġìŀ": 3323,
      "Ð¾Ð¶": 3324,
      "ser": 3325,
      "ava": 3326,
      "ateg": 3327,
      "ober": 3328,
      "Ġcu": 3329,
      "ółģ": 3330,
      "èµ": 3331,
      "bl": 3332,
      "Ġfil": 3333,
      "ween": 3334,
      "af": 3335,
      "Ø²": 3336,
      "Ġshould": 3337,
      "====": 3338,
      "Ġoper": 3339,
      "ister": 3340,
      "ĠrÃ©": 3341,
      "Ġown": 3342,
      "Ġcá»§": 3343,
      "Ġver": 3344,
      "Ġà¤®": 3345,
      "Ġpour": 3346,
      "vers": 3347,
      "\")": 3348,
      "Ġbest": 3349,
      "çĲ": 3350,
      "Ġos": 3351,
      "Ġteam": 3352,
      "ball": 3353,
      "RE": 3354,
      "Ġcá»§a": 3355,
      "den": 3356,
      "ĠlÃł": 3357,
      "æĭ": 3358,
      "ĠÐ¾ÑĤ": 3359,
      "Ð¸Ðº": 3360,
      "Ð¾Ð¿": 3361,
      "Ġhist": 3362,
      "other": 3363,
      "ÎµÏģ": 3364,
      "Ġfl": 3365,
      "Ð½Ð¾Ð³Ð¾": 3366,
      "Ġpass": 3367,
      "Ġyang": 3368,
      "ku": 3369,
      "her": 3370,
      "ethod": 3371,
      "Ġà¤¹": 3372,
      "Ġtak": 3373,
      "arm": 3374,
      "press": 3375,
      "åŁ": 3376,
      "overn": 3377,
      "Ġorgan": 3378,
      "ãĢĮ": 3379,
      "ãĢį": 3380,
      "eter": 3381,
      "ious": 3382,
      "ora": 3383,
      "ĠÈĻi": 3384,
      "ÑĸÐ´": 3385,
      "Ġcr": 3386,
      "Ã¡n": 3387,
      "ĮĢ": 3388,
      "ĠÐĿ": 3389,
      "Ġevery": 3390,
      "æľ¬": 3391,
      "Ġfr": 3392,
      "ista": 3393,
      "ĠPol": 3394,
      "ograph": 3395,
      "æĻ": 3396,
      "ÑĤÐ°": 3397,
      "ç¬": 3398,
      "Ãµes": 3399,
      "ĠBe": 3400,
      "reg": 3401,
      "Ð½Ñĸ": 3402,
      "ëı": 3403,
      "bs": 3404,
      "ille": 3405,
      "ott": 3406,
      "Ġagain": 3407,
      "ives": 3408,
      "ID": 3409,
      "ÎµÎ¹": 3410,
      "ìķ": 3411,
      "iter": 3412,
      "¸°": 3413,
      "tain": 3414,
      "Ġmatch": 3415,
      "Ġmade": 3416,
      "Ġng": 3417,
      "isch": 3418,
      "ene": 3419,
      "ished": 3420,
      "çİ": 3421,
      "ela": 3422,
      "çº": 3423,
      "ks": 3424,
      "ures": 3425,
      "ä½ľ": 3426,
      "Ġrun": 3427,
      "ined": 3428,
      "Ġsk": 3429,
      "Ġreal": 3430,
      "ivate": 3431,
      "ley": 3432,
      "ustom": 3433,
      "ä»¥": 3434,
      "Ġdiffer": 3435,
      "Ġins": 3436,
      "Ġsupport": 3437,
      "ized": 3438,
      "ĠJohn": 3439,
      "Ġbefore": 3440,
      "Ð¾Ð»ÑĮ": 3441,
      "ments": 3442,
      "ios": 3443,
      "Î±Î½": 3444,
      "Ġdirect": 3445,
      "Ġhim": 3446,
      "Ġdos": 3447,
      "Ġ==": 3448,
      "Ġdesign": 3449,
      "ium": 3450,
      "ĠGu": 3451,
      "Ð½Ð¾Ð¹": 3452,
      "à¤µ": 3453,
      "bu": 3454,
      "iá»ĩ": 3455,
      "back": 3456,
      "æĪĲ": 3457,
      "ä¸Ĭ": 3458,
      "rag": 3459,
      "Ġnumber": 3460,
      "è¦": 3461,
      "Ġann": 3462,
      "ĠÐĶ": 3463,
      "Ġfound": 3464,
      "ense": 3465,
      "Ġprim": 3466,
      "String": 3467,
      "Ġà¤ª": 3468,
      "ç¾": 3469,
      "Å¯": 3470,
      "ĠÐ±Ñĭ": 3471,
      "It": 3472,
      "ĠÐ¿ÐµÑĢ": 3473,
      "Ġpost": 3474,
      "Ġbetween": 3475,
      "Ġchar": 3476,
      "Ġsystem": 3477,
      "pend": 3478,
      "Ġdevelop": 3479,
      "ĠÐĵ": 3480,
      "../": 3481,
      "ĊĠĠ": 3482,
      "ences": 3483,
      "Ġ×ŀ×": 3484,
      "iro": 3485,
      "atus": 3486,
      "Ġunt": 3487,
      "hor": 3488,
      "lev": 3489,
      "ĠIf": 3490,
      "á»ĭ": 3491,
      "Ġsuc": 3492,
      "Ġwhile": 3493,
      "éĿ": 3494,
      "âĢĿ": 3495,
      "Ð°Ð¼": 3496,
      "ather": 3497,
      "Æ°á»£": 3498,
      "ĠEst": 3499,
      "html": 3500,
      "Tr": 3501,
      "ĠMan": 3502,
      "Ġlocal": 3503,
      "ĠOn": 3504,
      "Ġmark": 3505,
      "Ġbeing": 3506,
      "ĠÎ¿": 3507,
      "Ġinf": 3508,
      "Ø§Øª": 3509,
      "æ´": 3510,
      "ÏĢÎ¿": 3511,
      "ĠÐ½Ðµ": 3512,
      "inde": 3513,
      "lex": 3514,
      "è§": 3515,
      "Ġ×ľ×": 3516,
      "iment": 3517,
      "Ġlook": 3518,
      "Ġ=>": 3519,
      "éķ": 3520,
      "iet": 3521,
      "éĸ": 3522,
      "ĠQu": 3523,
      "ena": 3524,
      "æĢ": 3525,
      "åĵ": 3526,
      "Al": 3527,
      "Ġmil": 3528,
      "ĊĠĠĠĠĠĠĠĠĠ": 3529,
      "ury": 3530,
      "Ġduring": 3531,
      "Ġu": 3532,
      "Ġ%": 3533,
      "alth": 3534,
      "itu": 3535,
      "ubl": 3536,
      "ini": 3537,
      "ÐĴ": 3538,
      "Ġvis": 3539,
      "rem": 3540,
      "Ġcas": 3541,
      "è¨": 3542,
      "Ġsecond": 3543,
      "code": 3544,
      "def": 3545,
      "Ġcommun": 3546,
      "urch": 3547,
      "çĶŁ": 3548,
      "ms": 3549,
      "ques": 3550,
      "Ġbo": 3551,
      "dd": 3552,
      "Ġbuild": 3553,
      "ĠÎ´": 3554,
      "Ġright": 3555,
      "Ġcontin": 3556,
      "alse": 3557,
      "Ġvari": 3558,
      "omb": 3559,
      "Ġrest": 3560,
      "ÏīÎ½": 3561,
      "mente": 3562,
      "ule": 3563,
      "Ġcho": 3564,
      "ãĢĭ": 3565,
      "ãĢĬ": 3566,
      "ìĽ": 3567,
      "ists": 3568,
      "ĠÐŀ": 3569,
      "ä¼ļ": 3570,
      "Ġorig": 3571,
      "date": 3572,
      "Ġje": 3573,
      "ãĥ«": 3574,
      "ç¬¬": 3575,
      "Ã©t": 3576,
      "éĺ": 3577,
      "Ã¡s": 3578,
      "Ċĉĉĉĉ": 3579,
      "ĠØ³": 3580,
      "ya": 3581,
      "Ġrece": 3582,
      "Ġwant": 3583,
      "ë¦¬": 3584,
      "ithub": 3585,
      "try": 3586,
      "Ð°Ð´": 3587,
      "Æ¡": 3588,
      "ÑĢÐ¾Ð²": 3589,
      "ĊĠĠĠĠĠĠĠĠĠĠĠĠĠĠĠĠĠĠĠĠĠĠĠĠ": 3590,
      "Ġhand": 3591,
      "Ġfunction": 3592,
      "ĠUnited": 3593,
      "je": 3594,
      "Ġprocess": 3595,
      "ĠGe": 3596,
      "Ġ_": 3597,
      "no": 3598,
      "ä¿": 3599,
      "alk": 3600,
      "çĻ": 3601,
      "æİ": 3602,
      "ÏģÎ¿": 3603,
      "ner": 3604,
      "Ã¨re": 3605,
      "imes": 3606,
      "color": 3607,
      "à¤¹": 3608,
      "åĭ": 3609,
      "Ġnow": 3610,
      "Ġvol": 3611,
      "èĪ": 3612,
      "æ¸": 3613,
      "Ġsing": 3614,
      "Ġvon": 3615,
      "Ġterm": 3616,
      "Ø§Ùħ": 3617,
      "comm": 3618,
      "this": 3619,
      "Ġmain": 3620,
      "æŀ": 3621,
      "Ġintern": 3622,
      "kt": 3623,
      "ãĤ¤": 3624,
      "view": 3625,
      "oss": 3626,
      "ify": 3627,
      "Ð°Ñģ": 3628,
      "util": 3629,
      "OR": 3630,
      "ita": 3631,
      "present": 3632,
      "ĠÚ©": 3633,
      "åħ¬": 3634,
      "ati": 3635,
      "Ġden": 3636,
      "Ġknow": 3637,
      "Ġway": 3638,
      "amente": 3639,
      "aÅĤ": 3640,
      "ually": 3641,
      "Ġdisc": 3642,
      "raw": 3643,
      "github": 3644,
      "Ġcould": 3645,
      "Ã³w": 3646,
      "Ġfoi": 3647,
      "cz": 3648,
      "Ä±r": 3649,
      "ÐµÑģ": 3650,
      "ample": 3651,
      "Ġid": 3652,
      "ÑĨÑĸ": 3653,
      ".,": 3654,
      "ÑģÑĮÐº": 3655,
      "arch": 3656,
      "Un": 3657,
      "ĠCent": 3658,
      "ĠUniversity": 3659,
      "ced": 3660,
      "Ġ)": 3661,
      "à¥Ī": 3662,
      "essage": 3663,
      "class": 3664,
      "Ġìł": 3665,
      "áº§": 3666,
      "cul": 3667,
      "itor": 3668,
      "çľ": 3669,
      "Ġdin": 3670,
      "Ġmov": 3671,
      "ĠEuro": 3672,
      "ross": 3673,
      "ĠÑĸ": 3674,
      "ëĵ": 3675,
      "Ġeven": 3676,
      "ê³ł": 3677,
      "ua": 3678,
      "ĠNo": 3679,
      "Ġproduct": 3680,
      "ĠÐ³Ð¾Ð´Ð°": 3681,
      "Ġinformation": 3682,
      "Ġeach": 3683,
      "Ä±nd": 3684,
      "day": 3685,
      "Ġmak": 3686,
      "ĠÐµ": 3687,
      "cia": 3688,
      "Î²": 3689,
      "ones": 3690,
      "ĠBar": 3691,
      "Ġbusiness": 3692,
      "for": 3693,
      "Ð»ÐµÐ½": 3694,
      "à¥ģ": 3695,
      "ÙĪÙĨ": 3696,
      "å¸Ĥ": 3697,
      "Ġdev": 3698,
      "ÑĶ": 3699,
      "Cl": 3700,
      "ä¸»": 3701,
      "AL": 3702,
      "Ġusing": 3703,
      "ĠShe": 3704,
      "ÙĬØ©": 3705,
      "ê°Ģ": 3706,
      "Ã¡t": 3707,
      "EN": 3708,
      "ception": 3709,
      "ĠComm": 3710,
      "ĠAll": 3711,
      "istr": 3712,
      "Ġposs": 3713,
      "Ġvery": 3714,
      "ĠAmerican": 3715,
      "ira": 3716,
      "ìĬ¤": 3717,
      "ĠØ¯Ø±": 3718,
      "List": 3719,
      "Ġthree": 3720,
      "Ġfind": 3721,
      "ĠÐ¢": 3722,
      "arly": 3723,
      "ìĦľ": 3724,
      "ĠEng": 3725,
      "ito": 3726,
      "ĠÑĢÐµ": 3727,
      "Ã¬": 3728,
      "Le": 3729,
      "Ġimp": 3730,
      "ĠUS": 3731,
      "Ġpoint": 3732,
      "ĠCan": 3733,
      "åĲį": 3734,
      "ki": 3735,
      "Ġentre": 3736,
      "Ġconf": 3737,
      "çĤ": 3738,
      "ĠMay": 3739,
      "Ġsaid": 3740,
      "Ġpod": 3741,
      "ĠÐ¸Ð·": 3742,
      "ala": 3743,
      "ç´": 3744,
      "ras": 3745,
      "lin": 3746,
      "Ð³Ð¾": 3747,
      "Ġtot": 3748,
      "ĠNov": 3749,
      "çķ": 3750,
      "ling": 3751,
      "ãĥª": 3752,
      "ides": 3753,
      "äºİ": 3754,
      "Ð¸Ð·": 3755,
      "Ġkey": 3756,
      "ĠØ¹": 3757,
      "ĠAp": 3758,
      "Ð½ÑĭÐ¹": 3759,
      "ission": 3760,
      "ograf": 3761,
      "ponse": 3762,
      "ww": 3763,
      "Ġdown": 3764,
      "Ã´ng": 3765,
      "data": 3766,
      "ìĿĢ": 3767,
      "cause": 3768,
      "ĠJan": 3769,
      "ours": 3770,
      "å°ı": 3771,
      "urg": 3772,
      "pis": 3773,
      "aria": 3774,
      "Ċĉĉĉ": 3775,
      "ĠJul": 3776,
      "Ġsame": 3777,
      "Ġ×ķ": 3778,
      "äºĨ": 3779,
      "Ġhome": 3780,
      "Ð½ÑĭÑħ": 3781,
      "med": 3782,
      "Ġmemb": 3783,
      "endo": 3784,
      "ĠSc": 3785,
      "Ð°Ñı": 3786,
      "Ġbecause": 3787,
      "å»": 3788,
      "abel": 3789,
      "ream": 3790,
      "Ġvá»": 3791,
      "Ġread": 3792,
      "ĠEd": 3793,
      "quest": 3794,
      "bol": 3795,
      "ÑĥÑĢ": 3796,
      "ency": 3797,
      "the": 3798,
      "men": 3799,
      "right": 3800,
      "earch": 3801,
      "```": 3802,
      "æĸĩ": 3803,
      "ste": 3804,
      "Ġqui": 3805,
      "Ġqual": 3806,
      "ĠÑį": 3807,
      "Ġtop": 3808,
      "Äĥm": 3809,
      "Ø§Ø¯": 3810,
      "iáº¿": 3811,
      "ved": 3812,
      "Ġmuch": 3813,
      "ird": 3814,
      "Ġsee": 3815,
      "ìļ": 3816,
      "å¿": 3817,
      "ĠAt": 3818,
      "yl": 3819,
      "kan": 3820,
      "Ġboth": 3821,
      "Ġplace": 3822,
      "ÐµÑģÐº": 3823,
      "met": 3824,
      "aces": 3825,
      "Ġlife": 3826,
      "ĠÏĦÎ·ÏĤ": 3827,
      "####": 3828,
      "lease": 3829,
      "iving": 3830,
      "ÑĥÐ´": 3831,
      "Ġincluding": 3832,
      "cont": 3833,
      "...": 3834,
      "rict": 3835,
      "fe": 3836,
      "Ġport": 3837,
      "Ġalign": 3838,
      "va": 3839,
      "ÑĥÑĤ": 3840,
      "Ġou": 3841,
      "zen": 3842,
      "åŃĲ": 3843,
      "Ġlet": 3844,
      "Ġworld": 3845,
      "Ã¨s": 3846,
      "ush": 3847,
      "Ġtá»": 3848,
      "px": 3849,
      "eder": 3850,
      "ãĤ¢": 3851,
      "unt": 3852,
      "ervice": 3853,
      "ÙĪØ±": 3854,
      "ĠRes": 3855,
      "ÐµÑĢÐ°": 3856,
      "La": 3857,
      "ĠPa": 3858,
      "ì§Ģ": 3859,
      "test": 3860,
      "ength": 3861,
      "aster": 3862,
      "Ġday": 3863,
      "à¤¦": 3864,
      "ĠÙĨ": 3865,
      "icial": 3866,
      "omen": 3867,
      "ĠFl": 3868,
      "ĠIl": 3869,
      "ĠĠĠĠĠ": 3870,
      "ÑĨÐ¸": 3871,
      "my": 3872,
      "Ġref": 3873,
      "æ¯": 3874,
      "part": 3875,
      "çµ": 3876,
      "é«": 3877,
      "Ġdifferent": 3878,
      "ä¸į": 3879,
      "ĠAss": 3880,
      "å®¶": 3881,
      "Ã¹": 3882,
      "Ġrecord": 3883,
      "ĠSte": 3884,
      "'re": 3885,
      "çĶ¨": 3886,
      "ology": 3887,
      "ocial": 3888,
      "Ġ×©": 3889,
      "uck": 3890,
      "Æ°á»£c": 3891,
      "Ġopen": 3892,
      "To": 3893,
      "Î¼Î±": 3894,
      "Ġservice": 3895,
      "Ġequ": 3896,
      "ĠØ£": 3897,
      "ä¾": 3898,
      "Ġê°": 3899,
      "ically": 3900,
      "Ġgood": 3901,
      "ĠEm": 3902,
      "Col": 3903,
      "ÐµÑģÑĤ": 3904,
      "è¾": 3905,
      "sch": 3906,
      "param": 3907,
      "ãĥĪ": 3908,
      "Ġnon": 3909,
      "Ġperform": 3910,
      "iones": 3911,
      "ived": 3912,
      "Ġtake": 3913,
      "gu": 3914,
      "á»Ļt": 3915,
      "\"><": 3916,
      "Ø®": 3917,
      "ali": 3918,
      "ender": 3919,
      "Æ°á»Ŀ": 3920,
      "Ġë°": 3921,
      "ĠÐ¶": 3922,
      "iam": 3923,
      "key": 3924,
      "AN": 3925,
      "itions": 3926,
      "¡×": 3927,
      "yd": 3928,
      "å§": 3929,
      "ĠWorld": 3930,
      "Ã²": 3931,
      "hr": 3932,
      "ague": 3933,
      "ified": 3934,
      "Ã§Ãµes": 3935,
      "ocument": 3936,
      "perty": 3937,
      "ÐµÐ½ÑĤ": 3938,
      "Ð½ÑĭÐµ": 3939,
      "Ġchild": 3940,
      "Ġgl": 3941,
      "ret": 3942,
      "ains": 3943,
      "Ġlead": 3944,
      "Ġleg": 3945,
      "Ġstring": 3946,
      "inter": 3947,
      "ĠReg": 3948,
      "é¦": 3949,
      "ety": 3950,
      "Ðļ": 3951,
      "play": 3952,
      "ĠMe": 3953,
      "AS": 3954,
      "On": 3955,
      "Ġopt": 3956,
      "åĪĨ": 3957,
      "à¤ª": 3958,
      "itÃ©": 3959,
      "ĠÐĽ": 3960,
      "áº¡i": 3961,
      "LE": 3962,
      "Ġstate": 3963,
      "Ø·": 3964,
      "come": 3965,
      "ãģĭ": 3966,
      "ÐºÐ¾Ð²": 3967,
      "ference": 3968,
      "incip": 3969,
      "ctions": 3970,
      "Ġstyle": 3971,
      "ĠĊĊ": 3972,
      "js": 3973,
      "æĸ¯": 3974,
      "erc": 3975,
      "ãĥ©": 3976,
      "Ġshow": 3977,
      "Er": 3978,
      "adas": 3979,
      "ÐµÐ·": 3980,
      "ĠÑı": 3981,
      "ja": 3982,
      "Ġdid": 3983,
      "load": 3984,
      "Ġvoid": 3985,
      ",\"": 3986,
      "ĠÙģÙĬ": 3987,
      "ext": 3988,
      "Ġdoes": 3989,
      "log": 3990,
      "mod": 3991,
      "ÑĤÐ¾": 3992,
      "ĠPart": 3993,
      "ily": 3994,
      "Ġwrit": 3995,
      "Ġconsider": 3996,
      "Ġod": 3997,
      "ald": 3998,
      "ĠII": 3999,
      "aint": 4000,
      "Ġein": 4001,
      "ãģ£": 4002,
      "ĠÄĳÆ°á»£c": 4003,
      "Not": 4004,
      "omin": 4005,
      "ization": 4006,
      "Ġprogram": 4007,
      "ache": 4008,
      "ĠAust": 4009,
      "à¥ĩà¤Ĥ": 4010,
      "Ġfut": 4011,
      "Ġlast": 4012,
      "Î½Î±": 4013,
      "Ġbre": 4014,
      "ji": 4015,
      "Ġtechn": 4016,
      "ugust": 4017,
      "ula": 4018,
      "Ġelse": 4019,
      "×ķ×¨": 4020,
      "ativ": 4021,
      "éļ": 4022,
      "Ġnov": 4023,
      "ĠØ´": 4024,
      "ili": 4025,
      "ê¸°": 4026,
      "arr": 4027,
      "Ã©d": 4028,
      "ĠìĹ": 4029,
      "tract": 4030,
      "Ġdas": 4031,
      "Ġìķ": 4032,
      "Ob": 4033,
      "Ġevent": 4034,
      "Ġschool": 4035,
      "ãĤī": 4036,
      "ÑĢÐ°Ð²": 4037,
      "Ġexperi": 4038,
      "è¥": 4039,
      "æĬ": 4040,
      "Ġ×Ķ": 4041,
      "Ġthose": 4042,
      "ador": 4043,
      "ony": 4044,
      "Î¹Ïĥ": 4045,
      "string": 4046,
      "alt": 4047,
      "Data": 4048,
      "ç½": 4049,
      "Â·": 4050,
      "Ġret": 4051,
      "ĠYork": 4052,
      "ĠìĦ": 4053,
      "Ġsl": 4054,
      "Ġgovern": 4055,
      "Ð¸ÑģÑĤ": 4056,
      "×ľ×": 4057,
      "ĠMin": 4058,
      "ÐµÐ½Ð¸Ñı": 4059,
      "Ø£": 4060,
      "Īĺ": 4061,
      "å£": 4062,
      "gen": 4063,
      "********": 4064,
      "Īëĭ¤": 4065,
      "Ľ×": 4066,
      "ĠÎ¼Îµ": 4067,
      "ands": 4068,
      "Ġcustom": 4069,
      "ĠHow": 4070,
      "fun": 4071,
      "Ġprote": 4072,
      "Ġgi": 4073,
      "Ġcase": 4074,
      "ped": 4075,
      "Ġtri": 4076,
      "Wh": 4077,
      "iki": 4078,
      "An": 4079,
      "ìĺ": 4080,
      "ä»ĸ": 4081,
      "æ±": 4082,
      "Par": 4083,
      "Ġorder": 4084,
      "],": 4085,
      "zi": 4086,
      "ourn": 4087,
      "ìľ¼": 4088,
      "ÑĢÐµÐ´": 4089,
      "md": 4090,
      "Ã¡l": 4091,
      "ÑĥÑİ": 4092,
      "Ġseason": 4093,
      "ĠÙĦ": 4094,
      "ĠìĿ´": 4095,
      "ploy": 4096,
      "Ġdiv": 4097,
      "vir": 4098,
      "ÃŃt": 4099,
      "Ġlater": 4100,
      "ĠÐ²Ñĭ": 4101,
      "off": 4102,
      "Ġprivate": 4103,
      "Ġmais": 4104,
      "ĠThey": 4105,
      "IT": 4106,
      "ĠSer": 4107,
      "tes": 4108,
      "ĠIntern": 4109,
      "Î¹Î¿": 4110,
      "æĮ": 4111,
      "AC": 4112,
      "Ġ},": 4113,
      "Ġenc": 4114,
      "ÅĦ": 4115,
      "vol": 4116,
      "Ġpolit": 4117,
      "ager": 4118,
      "idos": 4119,
      "ĠEr": 4120,
      "Ġtrad": 4121,
      "Ð¸Ð´": 4122,
      "Ġproject": 4123,
      "cription": 4124,
      "¢×": 4125,
      "ĠDes": 4126,
      "ãĤ¯": 4127,
      "Ġadv": 4128,
      "Ġcome": 4129,
      "ias": 4130,
      "ìĸ": 4131,
      "Ð°Ð¹": 4132,
      "ä¹ĭ": 4133,
      "face": 4134,
      "èĥ": 4135,
      "Ġthá»": 4136,
      "Ľi": 4137,
      "ÑģÐ¿": 4138,
      "Se": 4139,
      "ĠSouth": 4140,
      "idth": 4141,
      "ĠCal": 4142,
      "iÃªn": 4143,
      "uel": 4144,
      "éĹ": 4145,
      "ĠMon": 4146,
      "uz": 4147,
      "ë§": 4148,
      "ories": 4149,
      "ared": 4150,
      "Ġcall": 4151,
      "Ġge": 4152,
      "Ġgreat": 4153,
      "ĠWest": 4154,
      "è·": 4155,
      "è¥¿": 4156,
      "Ġcurrent": 4157,
      "Ġnull": 4158,
      "ĠNational": 4159,
      "idade": 4160,
      "æĸ¹": 4161,
      "arget": 4162,
      "Ä±l": 4163,
      "Ø³Øª": 4164,
      "arl": 4165,
      "ëĤ": 4166,
      "ç©": 4167,
      "ni": 4168,
      "ĠÅ": 4169,
      "åł": 4170,
      "âĢľ": 4171,
      "ÐĲ": 4172,
      "ÑģÐºÐ¾Ð³Ð¾": 4173,
      "Ġpat": 4174,
      "è½": 4175,
      "Ġline": 4176,
      "èģ": 4177,
      "çŃ": 4178,
      "oria": 4179,
      "order": 4180,
      "point": 4181,
      "Ġlog": 4182,
      "ney": 4183,
      "This": 4184,
      "Cont": 4185,
      "Ġeas": 4186,
      "ĠMed": 4187,
      "Ðł": 4188,
      "Ġmá»Ļt": 4189,
      "ĠAb": 4190,
      "ãĤĬ": 4191,
      "Ġaround": 4192,
      "ply": 4193,
      "ĠDec": 4194,
      "ĠWill": 4195,
      "As": 4196,
      "Ġgame": 4197,
      "ë¥¼": 4198,
      "Ġâ": 4199,
      "Øµ": 4200,
      "wards": 4201,
      "ajor": 4202,
      "Ġold": 4203,
      "Ġappro": 4204,
      "da": 4205,
      "Ġcost": 4206,
      "Ġeng": 4207,
      "Ĺ×": 4208,
      "roll": 4209,
      "æ³ķ": 4210,
      "ç¤": 4211,
      "ival": 4212,
      "ĠSan": 4213,
      "ĠÑģÐ²": 4214,
      "Ŀ¼": 4215,
      "Ġcoun": 4216,
      "Ġfile": 4217,
      "uf": 4218,
      "Ġcompany": 4219,
      "ãģķ": 4220,
      "ÐºÑĤ": 4221,
      "ĠØ±": 4222,
      "Ġmem": 4223,
      "Ġcour": 4224,
      "ÏĥÎ·": 4225,
      "ief": 4226,
      "Ð°ÑģÑĤ": 4227,
      "ª×": 4228,
      "We": 4229,
      "Ġtrue": 4230,
      "ground": 4231,
      "æĸ°": 4232,
      "ided": 4233,
      "He": 4234,
      "ends": 4235,
      "Info": 4236,
      "Ġhab": 4237,
      "ideo": 4238,
      "¤×": 4239,
      "Ġcamp": 4240,
      "Ġprom": 4241,
      "do": 4242,
      "ÏĢÏĮ": 4243,
      "ãĥĥ": 4244,
      "ailable": 4245,
      "ĠChrist": 4246,
      "ona": 4247,
      "Ã©c": 4248,
      "Ù¾": 4249,
      "Ġappe": 4250,
      "apt": 4251,
      "Ġma": 4252,
      "ÑģÐºÐ¾Ð¹": 4253,
      "Ġplus": 4254,
      "çĪ": 4255,
      "'d": 4256,
      "ÐµÑĩ": 4257,
      "Ġgra": 4258,
      "agn": 4259,
      "ĠJe": 4260,
      "Ġgen": 4261,
      "Ġ×Ĳ×": 4262,
      "wh": 4263,
      "Ġincre": 4264,
      "ĠStates": 4265,
      "ba": 4266,
      "pen": 4267,
      "iven": 4268,
      "Ġprofess": 4269,
      "Ġfran": 4270,
      "Ġsom": 4271,
      "not": 4272,
      "umm": 4273,
      "ves": 4274,
      "Ġfamily": 4275,
      "è»": 4276,
      "ë¶": 4277,
      "ken": 4278,
      "ê²": 4279,
      "à¥¤": 4280,
      "ima": 4281,
      "Ġ///": 4282,
      "Ġextern": 4283,
      "ä»£": 4284,
      "Ġtamb": 4285,
      "Ġdest": 4286,
      "Ġprincip": 4287,
      "ptember": 4288,
      "Äĩ": 4289,
      "ä¸ĭ": 4290,
      "ĠRom": 4291,
      "åĲĮ": 4292,
      "lt": 4293,
      "æ°ĳ": 4294,
      "á»Ł": 4295,
      "ware": 4296,
      "Ġcond": 4297,
      "pa": 4298,
      "Ġiss": 4299,
      "Ġsuccess": 4300,
      "ëıĦ": 4301,
      "value": 4302,
      "err": 4303,
      "æĶ¿": 4304,
      "ĠcÃ³": 4305,
      "Ð½Ð¾ÑģÑĤ": 4306,
      "ites": 4307,
      "ky": 4308,
      "ĠÐ£": 4309,
      "çī©": 4310,
      "AM": 4311,
      "åĢ": 4312,
      "Ġpresent": 4313,
      "size": 4314,
      "Ġconne": 4315,
      "opt": 4316,
      "ulation": 4317,
      "vert": 4318,
      "ES": 4319,
      "aving": 4320,
      "ential": 4321,
      "ĠAugust": 4322,
      "ÐĿ": 4323,
      "Ġtitle": 4324,
      "Ġdella": 4325,
      "Ġfour": 4326,
      "æ¬": 4327,
      "ĠpÅĻ": 4328,
      "ham": 4329,
      "é«ĺ": 4330,
      "ìĭľ": 4331,
      "Ġagainst": 4332,
      "ords": 4333,
      "ĠĠĠĠĠĠĠĠĠĠĠĠĠĠĠĠĠĠĠĠĠĠĠĠĠĠĠĠĠĠĠĠ": 4334,
      "å±±": 4335,
      "Ġbas": 4336,
      "itch": 4337,
      "§×": 4338,
      "Ġresp": 4339,
      "ĠPer": 4340,
      "Ġwar": 4341,
      "Ġmat": 4342,
      "Ġsec": 4343,
      "etwork": 4344,
      "Ġarea": 4345,
      "ĠnÄĥm": 4346,
      "ĠÄĳá»": 4347,
      "Set": 4348,
      "èª": 4349,
      "Ġcle": 4350,
      "ilt": 4351,
      "ĠâĢŀ": 4352,
      "Ð²Ð°": 4353,
      "Ġimportant": 4354,
      "ëł": 4355,
      "ght": 4356,
      "Ġsmall": 4357,
      "Value": 4358,
      "Ġfue": 4359,
      "Ġgroup": 4360,
      "ĠString": 4361,
      "çī¹": 4362,
      "ports": 4363,
      "ĠCo": 4364,
      "ĠÎ³": 4365,
      "ways": 4366,
      "Ġfollowing": 4367,
      "à¤Ĺ": 4368,
      "wa": 4369,
      "elle": 4370,
      "Î¿Ïį": 4371,
      "Ġcert": 4372,
      "rc": 4373,
      "Ġavec": 4374,
      "new": 4375,
      "Ġknown": 4376,
      "Ġho": 4377,
      "Ġbook": 4378,
      "Ð¾Ñĩ": 4379,
      "Ġweek": 4380,
      "Ġdat": 4381,
      "ĠNorth": 4382,
      "Ġ!=": 4383,
      "ãģĤ": 4384,
      "Ġsem": 4385,
      "Ġaff": 4386,
      "but": 4387,
      "ards": 4388,
      "ette": 4389,
      "Ġocc": 4390,
      "ÑħÐ¾Ð´": 4391,
      "cle": 4392,
      "Ġmill": 4393,
      "iod": 4394,
      "pril": 4395,
      "ria": 4396,
      "Ġactiv": 4397,
      "Ġmust": 4398,
      "const": 4399,
      "èĩª": 4400,
      "Ġalbum": 4401,
      "Ġaccess": 4402,
      "gl": 4403,
      "ÙĨØ¯": 4404,
      "ĠCor": 4405,
      "ĠMus": 4406,
      "iy": 4407,
      "ounty": 4408,
      "éģĵ": 4409,
      "åĲİ": 4410,
      "äºĭ": 4411,
      "ÑĤÑĮ": 4412,
      "ĠPe": 4413,
      "iga": 4414,
      "less": 4415,
      "Ġhá»": 4416,
      "æĹ¶": 4417,
      "ems": 4418,
      "Ġtyp": 4419,
      "Ġ×ķ×": 4420,
      "FA": 4421,
      "Ġbro": 4422,
      "Ø§Ø¨": 4423,
      "Ġexp": 4424,
      "ĠOct": 4425,
      "Ġoriginal": 4426,
      "ÎµÏĤ": 4427,
      "ĠÎĳ": 4428,
      "ĠÃ©t": 4429,
      "£¼": 4430,
      "ĠRo": 4431,
      "stand": 4432,
      "Ġhead": 4433,
      "Ġ**": 4434,
      "ìĿ¸": 4435,
      "ĠSup": 4436,
      "Ġ>": 4437,
      "oud": 4438,
      "æ¼": 4439,
      "abl": 4440,
      "ocal": 4441,
      "ëĿ¼": 4442,
      "ÑĥÐ±": 4443,
      "elo": 4444,
      "ani": 4445,
      "icos": 4446,
      "Ġpot": 4447,
      "ych": 4448,
      "ness": 4449,
      "è´": 4450,
      "Ġsever": 4451,
      "Ġerr": 4452,
      "ribut": 4453,
      "Ġlim": 4454,
      "Î½ÏĦ": 4455,
      "angu": 4456,
      "ga": 4457,
      "stit": 4458,
      "ĠÐ¿Ð¾Ð»": 4459,
      "ries": 4460,
      "Ð°Ð½Ð¸Ñı": 4461,
      "ural": 4462,
      "ĠAnt": 4463,
      "ume": 4464,
      "Ġoffer": 4465,
      "nie": 4466,
      "rap": 4467,
      "Ġdal": 4468,
      "action": 4469,
      "acter": 4470,
      "Ã©es": 4471,
      "Or": 4472,
      "ç¥": 4473,
      "Ð°Ñħ": 4474,
      "Ġsus": 4475,
      "åįĹ": 4476,
      "Ð°Ð½Ð´": 4477,
      "ET": 4478,
      "å¤ĸ": 4479,
      "åĮº": 4480,
      "Pr": 4481,
      "à¤Ł": 4482,
      "Ġcreate": 4483,
      "Ġà¤ľ": 4484,
      "Ġquest": 4485,
      "ebru": 4486,
      "Ä±ÅŁ": 4487,
      "pecial": 4488,
      "list": 4489,
      "Ġmarket": 4490,
      "ä½į": 4491,
      "ĠBrit": 4492,
      "ĠÎŃ": 4493,
      "ots": 4494,
      "acy": 4495,
      "irm": 4496,
      "Ġfac": 4497,
      "ĠTo": 4498,
      "ãģĻ": 4499,
      "Ġinvest": 4500,
      "ĠSeptember": 4501,
      "ÑģÐºÐ¸Ð¹": 4502,
      "Ġmult": 4503,
      "Ġstill": 4504,
      "Ġsince": 4505,
      "De": 4506,
      "Â°": 4507,
      "file": 4508,
      "ĠCity": 4509,
      "umb": 4510,
      "ĠAng": 4511,
      "×Ļ×ª": 4512,
      "ĠBo": 4513,
      "\");": 4514,
      "Ġera": 4515,
      "lected": 4516,
      "isc": 4517,
      "Ġtext": 4518,
      "Ġber": 4519,
      "ĠThere": 4520,
      "Ġpay": 4521,
      "ìĿ¼": 4522,
      "icy": 4523,
      "ola": 4524,
      "åħ¶": 4525,
      "ift": 4526,
      "Ġwithin": 4527,
      "è¢": 4528,
      "Ġuntil": 4529,
      "rid": 4530,
      "ĠÙĩ": 4531,
      "uis": 4532,
      "time": 4533,
      "')": 4534,
      "link": 4535,
      "Ġarr": 4536,
      "ĠMarch": 4537,
      "ued": 4538,
      "otball": 4539,
      "Ġaddition": 4540,
      "åľĭ": 4541,
      "rite": 4542,
      "ĠJanu": 4543,
      "ĠÐĺ": 4544,
      "arge": 4545,
      "ffer": 4546,
      "Ġba": 4547,
      "åĮĹ": 4548,
      "ĠPort": 4549,
      "Get": 4550,
      "Ġavailable": 4551,
      "ĠÙħÙĨ": 4552,
      "ãĤĤ": 4553,
      "Ġeffect": 4554,
      "ee": 4555,
      "Ġexpl": 4556,
      "ĠÐ¤": 4557,
      "Ð°Ð»Ð¸": 4558,
      "iber": 4559,
      "Mod": 4560,
      "Ġals": 4561,
      "Ġìĭ": 4562,
      "Ġsua": 4563,
      "Ð¸ÑĩÐµÑģÐº": 4564,
      "len": 4565,
      "ining": 4566,
      "Ġconc": 4567,
      "ania": 4568,
      "amed": 4569,
      "ĠÄĲ": 4570,
      "åĲĪ": 4571,
      "ison": 4572,
      "EC": 4573,
      "ctor": 4574,
      "ë°": 4575,
      "ĠAc": 4576,
      "IC": 4577,
      "adi": 4578,
      "ciÃ³n": 4579,
      "åīį": 4580,
      "Ġobject": 4581,
      "ĠØ§ÙĦÙħ": 4582,
      "Ġhum": 4583,
      "ĠRec": 4584,
      "ĠDr": 4585,
      "ampions": 4586,
      "ç¨": 4587,
      "ĠSchool": 4588,
      "Ġlevel": 4589,
      "Ġkm": 4590,
      "ih": 4591,
      "oph": 4592,
      "Ġeste": 4593,
      "Ġfact": 4594,
      "áº¥t": 4595,
      "ÙĩØ§ÛĮ": 4596,
      "èĭ": 4597,
      "Ġexpect": 4598,
      "Ġstand": 4599,
      "Ġplan": 4600,
      "aÃ§Ã£o": 4601,
      "Ap": 4602,
      "Ġclub": 4603,
      "Ð¼ÐµÐ½": 4604,
      "lete": 4605,
      "Ġfield": 4606,
      "èī": 4607,
      "ĠcÃ¡c": 4608,
      "ĠPo": 4609,
      "ĠÐ¿ÑĢÐ¾": 4610,
      "Ġwater": 4611,
      "ç«ĭ": 4612,
      "Ġhere": 4613,
      "Ġwithout": 4614,
      "ĠÐ³Ð¾Ð´Ñĥ": 4615,
      "Ġair": 4616,
      "Ġseg": 4617,
      "ĠSo": 4618,
      "ãģĹãģ¦": 4619,
      "ĠAir": 4620,
      "Ã§a": 4621,
      "ÑĸÑĤ": 4622,
      "ĠAf": 4623,
      "El": 4624,
      "Ġcompet": 4625,
      "ÑĢÐ°Ð½": 4626,
      "ande": 4627,
      "uring": 4628,
      "Ġha": 4629,
      "ÐºÐ¾": 4630,
      "uer": 4631,
      "fl": 4632,
      "ë©": 4633,
      "Ġbar": 4634,
      "Ġchang": 4635,
      "ĠMc": 4636,
      "ude": 4637,
      "æīĢ": 4638,
      "ĠAg": 4639,
      "ĠÎ½": 4640,
      "Ġë§": 4641,
      "Î½Î¿": 4642,
      "abor": 4643,
      "ails": 4644,
      "ĠÑħ": 4645,
      "Ġmethod": 4646,
      "Ġnext": 4647,
      "viron": 4648,
      "Ġdue": 4649,
      "jo": 4650,
      "IS": 4651,
      "Ġbeg": 4652,
      "ÏĦÎ¹Îº": 4653,
      "³Øª": 4654,
      "ĠDav": 4655,
      "ately": 4656,
      "ÃŃn": 4657,
      "adem": 4658,
      "atal": 4659,
      "Ġcult": 4660,
      "ĠBut": 4661,
      "ìĤ¬": 4662,
      "ĠIm": 4663,
      "Ġhealth": 4664,
      "Ġmit": 4665,
      "atures": 4666,
      "Ġê²": 4667,
      "ãģĵ": 4668,
      "Ġspe": 4669,
      "é¡": 4670,
      "çŁ": 4671,
      "êµŃ": 4672,
      "cted": 4673,
      "Ġà¤µ": 4674,
      "ç¾İ": 4675,
      "If": 4676,
      "Ġservices": 4677,
      "conom": 4678,
      "Pl": 4679,
      "Ġproduc": 4680,
      "ĠEurope": 4681,
      "Ġmonth": 4682,
      "Ġtrong": 4683,
      "hel": 4684,
      "Ð¾Ð¼Ñĥ": 4685,
      "ĠÐ´Ð¾": 4686,
      "Error": 4687,
      "ĠHist": 4688,
      "().": 4689,
      "Ġident": 4690,
      "Ġide": 4691,
      "tre": 4692,
      "Ġ;": 4693,
      "zo": 4694,
      "rio": 4695,
      "ances": 4696,
      "Ġce": 4697,
      "Ġinde": 4698,
      "des": 4699,
      "Î¾": 4700,
      "Ġol": 4701,
      "ĠWar": 4702,
      "ika": 4703,
      "Ġfa": 4704,
      "èĢħ": 4705,
      "aterial": 4706,
      "ĠApril": 4707,
      "Ġseries": 4708,
      "Ġpas": 4709,
      "Ãłnh": 4710,
      "ĠØ¢": 4711,
      "æµ·": 4712,
      "ìĥ": 4713,
      "ç·": 4714,
      "ario": 4715,
      "åıĬ": 4716,
      "leased": 4717,
      "AP": 4718,
      "Ġexist": 4719,
      "ried": 4720,
      "Ġsocial": 4721,
      "Î»Î¿": 4722,
      "Ġfew": 4723,
      "));": 4724,
      "Ġwerd": 4725,
      "Ãły": 4726,
      "ĠÃ¨": 4727,
      "ÎµÎ¯": 4728,
      "ä¸ī": 4729,
      "ski": 4730,
      "æľĢ": 4731,
      "Ð»Ðµ": 4732,
      "ĠVal": 4733,
      "ĠGre": 4734,
      "Ġìĺ": 4735,
      "Ġsitu": 4736,
      "çĶ±": 4737,
      "Ġtry": 4738,
      "Ġpower": 4739,
      "ĠNovember": 4740,
      "ì¹": 4741,
      "è³": 4742,
      "ĠÑĨ": 4743,
      "ification": 4744,
      "cias": 4745,
      "Ġrequest": 4746,
      "Ġben": 4747,
      "Ġrepresent": 4748,
      "ĠSec": 4749,
      "ÃŁ": 4750,
      "Ġfund": 4751,
      "Ġant": 4752,
      "Â».": 4753,
      "Ġcalled": 4754,
      "Ġfree": 4755,
      "ised": 4756,
      "ëĲ": 4757,
      "inh": 4758,
      "lege": 4759,
      "Ġapplic": 4760,
      "ĠState": 4761,
      "Ð´Ð°": 4762,
      "à¤ľ": 4763,
      "ÙĪÙĦ": 4764,
      "åı°": 4765,
      "uj": 4766,
      "á»±": 4767,
      "empl": 4768,
      "Ġproble": 4769,
      "ëĮĢ": 4770,
      "Ġparticip": 4771,
      "For": 4772,
      "å¤ļ": 4773,
      "raft": 4774,
      "Ġcheck": 4775,
      "Des": 4776,
      "ĠGo": 4777,
      "Ð»Ð¾": 4778,
      "ÑĥÑĩ": 4779,
      "Ġà¤ħ": 4780,
      "Ġpa": 4781,
      "Ġsingle": 4782,
      "åĪ°": 4783,
      "path": 4784,
      "Ġallow": 4785,
      "ĠOctober": 4786,
      "ĠJanuary": 4787,
      "Ġ()": 4788,
      "Ġdari": 4789,
      "ĠÄį": 4790,
      "ĠÐºÐ¾Ð¼": 4791,
      "Ġsize": 4792,
      "Bu": 4793,
      "ĠÃº": 4794,
      "Ġinclude": 4795,
      "RO": 4796,
      "sub": 4797,
      "Ġinc": 4798,
      "Ġsob": 4799,
      "Ġwon": 4800,
      "å¹³": 4801,
      "iÃ³": 4802,
      "Ġsite": 4803,
      "Ġ\\": 4804,
      "Ġarg": 4805,
      "ĠGerm": 4806,
      "ÐµÐ½Ð¸Ðµ": 4807,
      "ended": 4808,
      "Ġlat": 4809,
      "Ġbased": 4810,
      "AA": 4811,
      "field": 4812,
      "ĊĠĠĠĠĠĠĠĠĠĠĠĠĠĠĠĠĠĠĠĠĠĠĠ": 4813,
      "Ġ×ĳ": 4814,
      "Ġprovide": 4815,
      "ittle": 4816,
      "Ġturn": 4817,
      "åĬł": 4818,
      "Ð½Ð¾Ð²": 4819,
      "ota": 4820,
      "Ġ×©×": 4821,
      "ĠPaul": 4822,
      "Object": 4823,
      "ãĤ·": 4824,
      "lem": 4825,
      "zer": 4826,
      "Ġstatic": 4827,
      "è¡¨": 4828,
      "ently": 4829,
      "Ġao": 4830,
      "DE": 4831,
      "çĤº": 4832,
      "////": 4833,
      "Ø§Ùĩ": 4834,
      "ìľ¼ë¡ľ": 4835,
      "Ġcomb": 4836,
      "Ġwebs": 4837,
      "æĻĤ": 4838,
      "Ġcomplet": 4839,
      "ĠJune": 4840,
      "ĠNe": 4841,
      "var": 4842,
      "Ġseveral": 4843,
      "Ġlearn": 4844,
      "antes": 4845,
      "Ä±nda": 4846,
      "Ġstruct": 4847,
      "ĠÎ±ÏĢÏĮ": 4848,
      "Ð°Ð»Ð°": 4849,
      "ĠIS": 4850,
      "ĠHar": 4851,
      "ĠBer": 4852,
      "Ġspecial": 4853,
      "ning": 4854,
      "Ã®": 4855,
      "ä¸ª": 4856,
      "è¢«": 4857,
      "Ġ--------": 4858,
      "ëŀ": 4859,
      "Ġtotal": 4860,
      "umber": 4861,
      "aur": 4862,
      "·¸": 4863,
      "fr": 4864,
      "Ġbec": 4865,
      "Ġlaw": 4866,
      "ìŀĲ": 4867,
      "ÑĥÐ²": 4868,
      "side": 4869,
      "ÑĤÐ¾ÑĢ": 4870,
      "ÐĶ": 4871,
      "aly": 4872,
      "ĠBu": 4873,
      "ĊĠĊĠ": 4874,
      "icle": 4875,
      "Ġinit": 4876,
      "Ġcontrol": 4877,
      "ÐµÑģÑĤÐ²": 4878,
      "Ġ:=": 4879,
      "Ġkeep": 4880,
      "éŁ": 4881,
      "Î¶": 4882,
      "Ð°Ð·": 4883,
      "Em": 4884,
      "ìĸ´": 4885,
      "æĦ": 4886,
      "ÑıÑĤ": 4887,
      "ugg": 4888,
      "ä¸ĸ": 4889,
      "Ġreport": 4890,
      "Ġgre": 4891,
      "ä»»": 4892,
      "pm": 4893,
      "Ġprop": 4894,
      "Ġbase": 4895,
      "aff": 4896,
      "Ġput": 4897,
      "ĠSant": 4898,
      "Ġmer": 4899,
      "ĠÑĪ": 4900,
      "ĠØ¬": 4901,
      "Ġindust": 4902,
      "Ġmajor": 4903,
      "ìĻ": 4904,
      "Ġgrow": 4905,
      "ĠÏĦÎ·Î½": 4906,
      "Ġanother": 4907,
      "ĠGl": 4908,
      "ĠØ¨Ùĩ": 4909,
      "UL": 4910,
      "Ġbecame": 4911,
      "Ġfalse": 4912,
      "By": 4913,
      "ĠJuly": 4914,
      "Ġindiv": 4915,
      "umn": 4916,
      "ÑĢÐ¾": 4917,
      "ources": 4918,
      "Key": 4919,
      "ĠComp": 4920,
      "ç±": 4921,
      "æ¥": 4922,
      "Ġaf": 4923,
      "ÎŃÏĤ": 4924,
      "íĻ": 4925,
      "acional": 4926,
      "ìĹĲìĦľ": 4927,
      "Im": 4928,
      "Ð½Ðµ": 4929,
      "ÑĨÐ¸Ð¸": 4930,
      "Ġjo": 4931,
      "Exception": 4932,
      "Ġê³": 4933,
      "Ġversion": 4934,
      "iles": 4935,
      "ĠRep": 4936,
      "Sh": 4937,
      "iano": 4938,
      "Test": 4939,
      "ĠAustral": 4940,
      "ÙĬÙĨ": 4941,
      "åħĭ": 4942,
      "ÑĥÑģ": 4943,
      "Ġsuper": 4944,
      "å¾Į": 4945,
      "ÑĸÐ¹": 4946,
      "sw": 4947,
      "ori": 4948,
      "api": 4949,
      "ĠCont": 4950,
      "ĠÃ¼": 4951,
      "ĠÃ§": 4952,
      "ump": 4953,
      "ĠVer": 4954,
      "idual": 4955,
      "vious": 4956,
      "Ġpartic": 4957,
      "Ġmas": 4958,
      "çĲĨ": 4959,
      "ãĥ³ãĥ": 4960,
      "'ll": 4961,
      "bar": 4962,
      "åıĤ": 4963,
      "ĠArt": 4964,
      "ÏİÎ½": 4965,
      "mas": 4966,
      "Ġmot": 4967,
      "èĢĮ": 4968,
      "bed": 4969,
      "æķĻ": 4970,
      "Ġthink": 4971,
      "Ġele": 4972,
      "yr": 4973,
      "Ġalong": 4974,
      "\"\"": 4975,
      "ĠSw": 4976,
      "../../": 4977,
      "ko": 4978,
      "eld": 4979,
      "Ġur": 4980,
      "å®ļ": 4981,
      "ouble": 4982,
      "idd": 4983,
      "Ġpubl": 4984,
      "Ðľ": 4985,
      "åħ¥": 4986,
      "ĠJap": 4987,
      "Ã½ch": 4988,
      "Ġparte": 4989,
      "ministr": 4990,
      "Ġstat": 4991,
      "ÙĪØ¯": 4992,
      "ului": 4993,
      "thers": 4994,
      "icro": 4995,
      "åı¯": 4996,
      "ĠJo": 4997,
      "ë³": 4998,
      "Refer": 4999,
      "agement": 5000,
      "US": 5001,
      "Ã¼n": 5002,
      "Ġfull": 5003,
      "ë¯": 5004,
      "ãĤ¿": 5005,
      "ae": 5006,
      "åĪ©": 5007,
      "ĠÐ¿Ð¾Ð´": 5008,
      "lam": 5009,
      "Ġens": 5010,
      "æĺŁ": 5011,
      "rain": 5012,
      "isi": 5013,
      "ÃŃs": 5014,
      "ĠLeague": 5015,
      "Ind": 5016,
      "istas": 5017,
      "Ġten": 5018,
      "ĠDo": 5019,
      "à¥Ĥ": 5020,
      "akan": 5021,
      "ocus": 5022,
      "Ð¶Ðµ": 5023,
      "ë¬": 5024,
      "ett": 5025,
      "ĠÑĤÐ°": 5026,
      "ĠDecember": 5027,
      "è·¯": 5028,
      "ä¸İ": 5029,
      "Ġleft": 5030,
      "ibr": 5031,
      "Ġesc": 5032,
      "---": 5033,
      "Ġvar": 5034,
      "ãģķãĤĮ": 5035,
      "æ¨": 5036,
      "ĠÎľ": 5037,
      "ED": 5038,
      "AD": 5039,
      "ĠJos": 5040,
      "ackage": 5041,
      "Ġ×©×ľ": 5042,
      "asi": 5043,
      "è£": 5044,
      "anda": 5045,
      "ched": 5046,
      "ĠCounty": 5047,
      "nÄĽ": 5048,
      "ijn": 5049,
      "public": 5050,
      "ÎºÎµ": 5051,
      "odes": 5052,
      "amento": 5053,
      "iste": 5054,
      "Ġcontent": 5055,
      "ipp": 5056,
      "eri": 5057,
      "ession": 5058,
      "Ġ/**": 5059,
      "ĠÐĹ": 5060,
      "ored": 5061,
      "ayer": 5062,
      "ĠÐ¾Ñģ": 5063,
      "Ġmusic": 5064,
      "iled": 5065,
      "aux": 5066,
      "Â»,": 5067,
      "ĠPal": 5068,
      "Ġview": 5069,
      "ÑĸÐ½": 5070,
      "Ùī": 5071,
      "ements": 5072,
      "ĠMich": 5073,
      "é¢": 5074,
      "Ġonline": 5075,
      "icht": 5076,
      "']": 5077,
      "Ġexample": 5078,
      "Ġcity": 5079,
      "Ġfre": 5080,
      "Ð½Ð°Ñı": 5081,
      "ĠMart": 5082,
      "Ġexperience": 5083,
      "icas": 5084,
      "ording": 5085,
      "ris": 5086,
      "ende": 5087,
      "Ġsay": 5088,
      "Ð¾ÑĤÐ¾ÑĢ": 5089,
      "Ġroku": 5090,
      "['": 5091,
      "includ": 5092,
      "ĠBel": 5093,
      "éĢļ": 5094,
      "ination": 5095,
      "ë¶Ģ": 5096,
      "Ġinterest": 5097,
      "Ġutil": 5098,
      "ĠLond": 5099,
      "aim": 5100,
      "Ġsong": 5101,
      "vis": 5102,
      "CO": 5103,
      "orge": 5104,
      "Ġess": 5105,
      "å»º": 5106,
      "iana": 5107,
      "Ġì§": 5108,
      "ĠFebru": 5109,
      "obal": 5110,
      "oto": 5111,
      "å°Ķ": 5112,
      "ago": 5113,
      "ÑĥÐ¿": 5114,
      "Ð½Ð¸Ðº": 5115,
      "Ġhtt": 5116,
      "ĠHer": 5117,
      "ÛĮÚ©": 5118,
      "å¾Ĺ": 5119,
      "},": 5120,
      "Ġmembers": 5121,
      "éĩĮ": 5122,
      "å¤©": 5123,
      "ìĽĶ": 5124,
      "'ve": 5125,
      "ĠMal": 5126,
      "Ġdays": 5127,
      "ĠÎ£": 5128,
      "mo": 5129,
      "center": 5130,
      "èĢĥ": 5131,
      "Ġist": 5132,
      "ades": 5133,
      "Ġlarg": 5134,
      "========": 5135,
      "ĠÎļ": 5136,
      "(),": 5137,
      "Ġ->": 5138,
      "cy": 5139,
      "æı": 5140,
      "urity": 5141,
      "åħ¨": 5142,
      "ogle": 5143,
      "Ġà¤¬": 5144,
      "ĠChe": 5145,
      "Ġsw": 5146,
      "Ġhouse": 5147,
      "rab": 5148,
      "ĠÑĤÐ°Ðº": 5149,
      "pert": 5150,
      "Ġà¤¨": 5151,
      "ĠìĤ¬": 5152,
      "aps": 5153,
      "ĠPark": 5154,
      "Ġeduc": 5155,
      "ĠPres": 5156,
      "ãģĹãģŁ": 5157,
      "Ġable": 5158,
      "è©": 5159,
      "ische": 5160,
      "Ġuser": 5161,
      "Ġlarge": 5162,
      "áº¯": 5163,
      "ĠNot": 5164,
      "Ġmodel": 5165,
      "çĲĥ": 5166,
      "net": 5167,
      "ops": 5168,
      "ãĥ¬": 5169,
      "comp": 5170,
      "Î»Î»": 5171,
      "Ġmo": 5172,
      "Ġorg": 5173,
      "aron": 5174,
      "ìķĦ": 5175,
      "å¾·": 5176,
      "ĠHowever": 5177,
      "Ġcount": 5178,
      "ĠKing": 5179,
      "à¤¶": 5180,
      "Ġcir": 5181,
      "init": 5182,
      "Ã¬nh": 5183,
      "Ġ×Ĳ": 5184,
      "ç§ĳ": 5185,
      "ĠÑģÐ¿": 5186,
      "ĠPhil": 5187,
      "Ġshort": 5188,
      "à¤¡": 5189,
      "mar": 5190,
      "Ġris": 5191,
      "ĠÎł": 5192,
      "ĠGener": 5193,
      "alah": 5194,
      "èĤ": 5195,
      "Ġvoor": 5196,
      "ĠmÃ¡s": 5197,
      "ought": 5198,
      "ids": 5199,
      "ires": 5200,
      "åĳĺ": 5201,
      "Ġpersonal": 5202,
      "ĠÐ¿Ð¾Ñģ": 5203,
      "ĠMor": 5204,
      "encia": 5205,
      "ering": 5206,
      "äºĮ": 5207,
      "ford": 5208,
      "ÑĢÐ¸Ð¼": 5209,
      "Î±Ïģ": 5210,
      "left": 5211,
      "ãģĨ": 5212,
      "è¶": 5213,
      "ismo": 5214,
      "íķ´": 5215,
      "ampionship": 5216,
      "é»": 5217,
      "ĠĠĠĠĠĠ": 5218,
      "åº¦": 5219,
      "ÑĥÐ½": 5220,
      "Ġland": 5221,
      "Ġchange": 5222,
      "from": 5223,
      "åĮĸ": 5224,
      "osp": 5225,
      "iej": 5226,
      "Ġaccount": 5227,
      "Ġperiod": 5228,
      "å·ŀ": 5229,
      "ention": 5230,
      "ĠHol": 5231,
      "rica": 5232,
      "Ġmai": 5233,
      "gcolor": 5234,
      "ĠÑĢÐ°Ð·": 5235,
      "Ġrom": 5236,
      "Ġêµ": 5237,
      "Ġnational": 5238,
      "Ð°ÑĤÑĮ": 5239,
      "rel": 5240,
      "Ġelement": 5241,
      "Ġëĭ": 5242,
      "ĠÃ¶": 5243,
      "Ġearly": 5244,
      "Ġdire": 5245,
      "è¦ģ": 5246,
      "irt": 5247,
      "Ġsont": 5248,
      "adio": 5249,
      "Ðŀ": 5250,
      "anguage": 5251,
      "ĠSm": 5252,
      "Ġpri": 5253,
      "km": 5254,
      "ãĤ¸": 5255,
      "Ã¡ng": 5256,
      "Ġbreak": 5257,
      "æ¼Ķ": 5258,
      "berg": 5259,
      "cis": 5260,
      "Ġchildren": 5261,
      "Time": 5262,
      "ĠëĮĢ": 5263,
      "Ġbeh": 5264,
      "Config": 5265,
      "Ĭ¸": 5266,
      "Ġcou": 5267,
      "æľŁ": 5268,
      "á»¥": 5269,
      "Ġgoing": 5270,
      "Ġalways": 5271,
      "ĵ×": 5272,
      "âĢ¦": 5273,
      "ured": 5274,
      "Ġresearch": 5275,
      "Æ°á»Ŀi": 5276,
      "elt": 5277,
      "çĽ®": 5278,
      "Ġfri": 5279,
      "éĿ¢": 5280,
      "åĿ": 5281,
      "Ġdiff": 5282,
      "Ġmember": 5283,
      "With": 5284,
      "Ġcrit": 5285,
      "\"></": 5286,
      "íĸ": 5287,
      "å²": 5288,
      "Ġlink": 5289,
      "Ġà¤¦": 5290,
      "ĠChar": 5291,
      "çı": 5292,
      "anto": 5293,
      "á»¯": 5294,
      "ÑİÑĤ": 5295,
      "Ġini": 5296,
      "illa": 5297,
      "Ã©l": 5298,
      "æĥ": 5299,
      "Qu": 5300,
      "ĠsiÄĻ": 5301,
      "Ãłi": 5302,
      "Ã¶r": 5303,
      "uration": 5304,
      "Add": 5305,
      "ster": 5306,
      "Û±": 5307,
      "());": 5308,
      "ĠMy": 5309,
      "place": 5310,
      "FF": 5311,
      "Ġelect": 5312,
      "Ġhapp": 5313,
      "çŃī": 5314,
      "mon": 5315,
      "All": 5316,
      "ĠaÃ±": 5317,
      "iques": 5318,
      "orte": 5319,
      "åıĳ": 5320,
      "íĺ": 5321,
      "head": 5322,
      "engan": 5323,
      "Ð°Ð³": 5324,
      "ges": 5325,
      "ummary": 5326,
      "zn": 5327,
      "nya": 5328,
      "Ġbetter": 5329,
      "alf": 5330,
      "ãģĻãĤĭ": 5331,
      "Æ°Æ¡": 5332,
      "cha": 5333,
      "ĠFrance": 5334,
      "ÅĻÃŃ": 5335,
      "Ġconstru": 5336,
      "ights": 5337,
      "éł": 5338,
      "Ġcover": 5339,
      "ules": 5340,
      "Ġcolor": 5341,
      "ige": 5342,
      "UT": 5343,
      "ington": 5344,
      "å·¥": 5345,
      "Ġwebsite": 5346,
      "å¥³": 5347,
      "gi": 5348,
      "cel": 5349,
      "Ġoften": 5350,
      "atform": 5351,
      "Ġwur": 5352,
      "ĠWith": 5353,
      "ĠÏĥÏĦÎ·": 5354,
      "ĠLes": 5355,
      "SS": 5356,
      "abil": 5357,
      "á»©": 5358,
      "ãģ¾": 5359,
      "å¦": 5360,
      "ĠÎºÎ±": 5361,
      "ĠSal": 5362,
      "Ø§Ø²": 5363,
      "cer": 5364,
      "eta": 5365,
      "åĬ¨": 5366,
      "aya": 5367,
      "thing": 5368,
      "Ġpada": 5369,
      "este": 5370,
      "é£": 5371,
      "Ġcode": 5372,
      "ĠDep": 5373,
      "ĠRober": 5374,
      "year": 5375,
      "ÑĢÑı": 5376,
      "Ġimpro": 5377,
      "ê³¼": 5378,
      "\";": 5379,
      "èŃ": 5380,
      "vironment": 5381,
      "Ġpract": 5382,
      "Ġlot": 5383,
      "lÄ±": 5384,
      "æĢ§": 5385,
      "ĠBro": 5386,
      "ension": 5387,
      "Ġfeel": 5388,
      "Ġworking": 5389,
      "eters": 5390,
      "index": 5391,
      "Ġgovernment": 5392,
      "ĠDie": 5393,
      "embre": 5394,
      "opy": 5395,
      "Ġgeneral": 5396,
      "ĠFebruary": 5397,
      "ĠAfter": 5398,
      "ĠDiv": 5399,
      "ĠMil": 5400,
      "ÏĦÎ¬": 5401,
      "Ĵ×": 5402,
      "ĠÙĤ": 5403,
      "ĠOl": 5404,
      "Ġless": 5405,
      "èĲ": 5406,
      "Ġnel": 5407,
      "Ġmight": 5408,
      "='": 5409,
      "Ġdocument": 5410,
      "ĠWhen": 5411,
      "æĸ¼": 5412,
      "iff": 5413,
      "BN": 5414,
      "adu": 5415,
      "Ġword": 5416,
      "user": 5417,
      "Ġren": 5418,
      "imo": 5419,
      "aced": 5420,
      "Ġvia": 5421,
      "ëĤĺ": 5422,
      "Ġtre": 5423,
      "ĠDist": 5424,
      "align": 5425,
      "Form": 5426,
      "Ġerror": 5427,
      "ĠInternational": 5428,
      "].": 5429,
      "Æ°Æ¡ng": 5430,
      "Request": 5431,
      "Ġ×Ļ": 5432,
      "Ġneg": 5433,
      "Man": 5434,
      "èĥ½": 5435,
      "ĠÐ´Ð»Ñı": 5436,
      "itive": 5437,
      "ej": 5438,
      "Box": 5439,
      "æĹ¥æľ¬": 5440,
      "ability": 5441,
      "Ð¸Ð½Ð°": 5442,
      "ips": 5443,
      "BC": 5444,
      "map": 5445,
      "script": 5446,
      "lich": 5447,
      "mit": 5448,
      "table": 5449,
      "Ġposition": 5450,
      "uan": 5451,
      "ÛĮÙĨ": 5452,
      "éĤ": 5453,
      "Ġgiven": 5454,
      "íķĻ": 5455,
      "ischen": 5456,
      "ils": 5457,
      "Ġvi": 5458,
      "File": 5459,
      "Ġassert": 5460,
      "ÑĤÐ¸": 5461,
      "ION": 5462,
      "rie": 5463,
      "×Ļ×Ķ": 5464,
      "æīĭ": 5465,
      "Ġarch": 5466,
      "Ġmaking": 5467,
      "empt": 5468,
      "ĠÎ·": 5469,
      "Ġsure": 5470,
      "ĠRuss": 5471,
      "http": 5472,
      "Ġreleased": 5473,
      "ivo": 5474,
      "Ø¯Ùĩ": 5475,
      "ĠClub": 5476,
      "kn": 5477,
      "Ġconfig": 5478,
      "ÐºÑĥ": 5479,
      "Ġalt": 5480,
      "Ġmaterial": 5481,
      "ç«Ļ": 5482,
      "åħ±": 5483,
      "à¤¬": 5484,
      "Ġapp": 5485,
      "ye": 5486,
      "Ġtoo": 5487,
      "ander": 5488,
      "ãĥŃ": 5489,
      "Ġìľ": 5490,
      "Ð¾Ð½Ð°": 5491,
      "ribute": 5492,
      "unicip": 5493,
      "ami": 5494,
      ".)": 5495,
      "Ġaux": 5496,
      "æĺİ": 5497,
      "Ġindividual": 5498,
      "Ġrefer": 5499,
      "ÐµÐ¿": 5500,
      "Ġthings": 5501,
      "ĠDan": 5502,
      "At": 5503,
      "Ġseu": 5504,
      "ĠHigh": 5505,
      "bit": 5506,
      "ä½¿": 5507,
      "olo": 5508,
      "Ġdig": 5509,
      "ills": 5510,
      "Ġvideo": 5511,
      "ases": 5512,
      "ãĥķ": 5513,
      "ibli": 5514,
      "ync": 5515,
      "ì£¼": 5516,
      "ĠTV": 5517,
      "indows": 5518,
      "ael": 5519,
      "No": 5520,
      "sel": 5521,
      "Ġsobre": 5522,
      "Ðĺ": 5523,
      "Ġestabl": 5524,
      "ìĪĺ": 5525,
      "ares": 5526,
      "Ġhom": 5527,
      "Ġsat": 5528,
      "iu": 5529,
      "doc": 5530,
      "fect": 5531,
      "ego": 5532,
      "mes": 5533,
      "á»ĩ": 5534,
      "ema": 5535,
      "ĠCre": 5536,
      "Ġsent": 5537,
      "aba": 5538,
      "ĠAct": 5539,
      "Ġdefault": 5540,
      "ecut": 5541,
      "Ġhard": 5542,
      "Ġbody": 5543,
      "ÐµÐ¶": 5544,
      "iem": 5545,
      "uto": 5546,
      "Ðĳ": 5547,
      "Ġpopular": 5548,
      "åĨħ": 5549,
      "Ġdet": 5550,
      "sv": 5551,
      "ÅĽci": 5552,
      "iding": 5553,
      "Ġcountry": 5554,
      "ãĤĪ": 5555,
      "¦×": 5556,
      "oper": 5557,
      "ĠOne": 5558,
      "Ġà¤°": 5559,
      "Ġemploy": 5560,
      "dom": 5561,
      "Ġfur": 5562,
      "Ġprofessional": 5563,
      "Ġcommunity": 5564,
      "ello": 5565,
      "($": 5566,
      "Î¯Î½": 5567,
      "à¥ĭà¤Ĥ": 5568,
      "Ġside": 5569,
      "ç¤¾": 5570,
      "uth": 5571,
      "OS": 5572,
      "udi": 5573,
      "Ġcaus": 5574,
      "ĠÐ¾Ð´": 5575,
      "Ġformer": 5576,
      "Ġdengan": 5577,
      "Ø«": 5578,
      "ĠFilm": 5579,
      "åİŁ": 5580,
      "bal": 5581,
      "ĠÄĳÃ£": 5582,
      "ags": 5583,
      "æĿ¥": 5584,
      "oute": 5585,
      "Ġdoor": 5586,
      "Î®ÏĤ": 5587,
      "clus": 5588,
      "ãģ£ãģŁ": 5589,
      "PI": 5590,
      "ĠRed": 5591,
      "ÏĦÎ¹": 5592,
      "Ã©ho": 5593,
      "Ġtelev": 5594,
      "áº§u": 5595,
      "rav": 5596,
      "å¼ı": 5597,
      "oken": 5598,
      "Ġëı": 5599,
      "ç¶": 5600,
      "Øº": 5601,
      "ĠDon": 5602,
      "Ġflo": 5603,
      "ĠHis": 5604,
      "Ġnil": 5605,
      "oul": 5606,
      "åģ": 5607,
      "ĠÑĢÐ¾Ðº": 5608,
      "rown": 5609,
      "Ġplayed": 5610,
      "bre": 5611,
      "ĠSim": 5612,
      "uri": 5613,
      "ĠThese": 5614,
      "Ġ-----": 5615,
      "icon": 5616,
      "ĠØ§ÛĮ": 5617,
      "ĠÐºÐ¾ÑĤÐ¾ÑĢ": 5618,
      "ending": 5619,
      "Ġpossible": 5620,
      "ç®": 5621,
      "bor": 5622,
      "asc": 5623,
      "æŁ": 5624,
      "ĠÙĥ": 5625,
      "Ġbgcolor": 5626,
      "×Ļ×¨": 5627,
      "entes": 5628,
      "ĠDem": 5629,
      "Ð¸Ð»Ð¸": 5630,
      "Ð»Ð°Ð´": 5631,
      "bert": 5632,
      "cast": 5633,
      "Ġtimes": 5634,
      "èİ": 5635,
      "ething": 5636,
      "UR": 5637,
      "Ġmilit": 5638,
      "Ġrequire": 5639,
      "ãĤ«": 5640,
      "ĠParis": 5641,
      "Ġrange": 5642,
      "ĠëĤ": 5643,
      "Ġreally": 5644,
      "atural": 5645,
      "ë²": 5646,
      "una": 5647,
      "ĠÃī": 5648,
      "hi": 5649,
      "Ġsci": 5650,
      "ĠMad": 5651,
      "ete": 5652,
      "ĠPat": 5653,
      "Ġmag": 5654,
      "çľģ": 5655,
      "Ġcontain": 5656,
      "Ġinte": 5657,
      "Ġtarget": 5658,
      "You": 5659,
      "Ġstudents": 5660,
      "OT": 5661,
      "ape": 5662,
      "Ġauthor": 5663,
      "ĠÐ²ÑĸÐ´": 5664,
      "ius": 5665,
      "Ø¶": 5666,
      "Ġwin": 5667,
      "ÙĩØ§": 5668,
      "Ð¸ÑĢ": 5669,
      "Ġdom": 5670,
      "éĻ¢": 5671,
      "ĠÐºÐ¾Ð½": 5672,
      "Ġvá»Ľi": 5673,
      "ĠdÃ©c": 5674,
      "Ġtro": 5675,
      "config": 5676,
      "avor": 5677,
      "Ġtit": 5678,
      "Ġnear": 5679,
      "print": 5680,
      "Ġtrack": 5681,
      "lish": 5682,
      "Ġcareer": 5683,
      "Ġing": 5684,
      "ĠÏĥÏħ": 5685,
      "ĠØŃ": 5686,
      "ako": 5687,
      "åĬĽ": 5688,
      "Ġseb": 5689,
      "void": 5690,
      "Ġ?": 5691,
      "Ġmes": 5692,
      "Ġhost": 5693,
      "Ġmeet": 5694,
      "ĠMo": 5695,
      "Ġkon": 5696,
      "ç³": 5697,
      "åĽł": 5698,
      "acc": 5699,
      "é©": 5700,
      "à¤·": 5701,
      "åĨĽ": 5702,
      "íĥ": 5703,
      "Ġdescri": 5704,
      "ĠCoun": 5705,
      "ëª": 5706,
      "reet": 5707,
      "çł": 5708,
      "Ġauf": 5709,
      "Ġpap": 5710,
      "stance": 5711,
      "Ġdevelopment": 5712,
      "ÑĥÐ¶": 5713,
      "Ð¸Ð»ÑĮ": 5714,
      "ĠMark": 5715,
      "æ¬¡": 5716,
      "ride": 5717,
      "ĠÏĥÏĦÎ¿": 5718,
      "pace": 5719,
      "ram": 5720,
      "Î¼Î¿": 5721,
      "çİĭ": 5722,
      "æł¡": 5723,
      "Ġbecome": 5724,
      "ì²": 5725,
      "Ġë³": 5726,
      "ÏĦÎµ": 5727,
      "qual": 5728,
      "ĠSystem": 5729,
      "Ġrespons": 5730,
      "eur": 5731,
      "Ġproducts": 5732,
      "Ġprint": 5733,
      "=#": 5734,
      "Ġbuilding": 5735,
      "ĠBen": 5736,
      "ĠÐ¥": 5737,
      "Ð¾Ðµ": 5738,
      "ĠÂ»": 5739,
      "Ġpen": 5740,
      "ÛĮÙĦ": 5741,
      "Ġgames": 5742,
      "inning": 5743,
      "Ġsett": 5744,
      "âĢ¢": 5745,
      "èĬ": 5746,
      "serv": 5747,
      "ĊĠĊ": 5748,
      "Ġ&&": 5749,
      "ÅŁt": 5750,
      "åĪ¶": 5751,
      "born": 5752,
      "Notes": 5753,
      "ÐµÑĤÑģÑı": 5754,
      "Ã©rie": 5755,
      "ç¦": 5756,
      "ols": 5757,
      "ĠngÆ°á»Ŀi": 5758,
      "ĠDavid": 5759,
      "èĩ³": 5760,
      "Ġpers": 5761,
      "py": 5762,
      "åįģ": 5763,
      "IM": 5764,
      "ãģĦãĤĭ": 5765,
      "ĠÄ°": 5766,
      "Ġbig": 5767,
      "hether": 5768,
      "áº§n": 5769,
      "Result": 5770,
      "ĠStud": 5771,
      "ocation": 5772,
      "anh": 5773,
      "ĠØ§Ø²": 5774,
      "ÙħØ±": 5775,
      "Æ°á»Ľ": 5776,
      "ĠTrans": 5777,
      "ogn": 5778,
      "íĬ¸": 5779,
      "ocr": 5780,
      "å£«": 5781,
      "ä¹Ł": 5782,
      "top": 5783,
      "View": 5784,
      "Ġmillion": 5785,
      "iva": 5786,
      "dis": 5787,
      "Ġpi": 5788,
      "Ġfootball": 5789,
      "çģ": 5790,
      "include": 5791,
      "êµ¬": 5792,
      "éĩĳ": 5793,
      "ĠÎķ": 5794,
      "Ð¼Ð°": 5795,
      "Ð¾Ð²Ð°Ð½": 5796,
      "Ġlove": 5797,
      "State": 5798,
      "Ġcompos": 5799,
      "pression": 5800,
      "ieve": 5801,
      "Ġtook": 5802,
      "ĊĊĠĠĠĠĠĠĠĠĠĠĠ": 5803,
      "Ġsal": 5804,
      "ĠÎ¤": 5805,
      "å®ī": 5806,
      "Ġparticular": 5807,
      "ĠÏĩ": 5808,
      "Ġvisit": 5809,
      "Ġhaving": 5810,
      "Ġjun": 5811,
      "ĠØ®": 5812,
      "Ġvill": 5813,
      "æŀĹ": 5814,
      "ĠBy": 5815,
      "ĠBritish": 5816,
      "':": 5817,
      "à¤§": 5818,
      "lad": 5819,
      "ĠÎµÏĢ": 5820,
      "ester": 5821,
      "Ġtable": 5822,
      "CH": 5823,
      "Ġhistory": 5824,
      "Ġask": 5825,
      "ĠCup": 5826,
      "annel": 5827,
      "åı£": 5828,
      "ĠFr": 5829,
      "ova": 5830,
      "Ġnever": 5831,
      "Ġgive": 5832,
      "çĦ": 5833,
      "Ġhij": 5834,
      "())": 5835,
      "onom": 5836,
      "Ġlight": 5837,
      "cho": 5838,
      "Ġstep": 5839,
      "Ġfem": 5840,
      "Ġepis": 5841,
      "ready": 5842,
      "word": 5843,
      "Def": 5844,
      "ìĨ": 5845,
      "Ġlittle": 5846,
      "ĠLou": 5847,
      "ugh": 5848,
      "ä½ĵ": 5849,
      "Ġà¤²": 5850,
      "ĠLos": 5851,
      "Ġclos": 5852,
      "Ġpath": 5853,
      "Ġjob": 5854,
      "Ġdeath": 5855,
      "Ġassoci": 5856,
      "urt": 5857,
      "aine": 5858,
      "ÐµÐ½Ð½Ñı": 5859,
      "ators": 5860,
      "ÃŃch": 5861,
      "Ġbuilt": 5862,
      "ples": 5863,
      "æĭī": 5864,
      "rup": 5865,
      "Ġorganiz": 5866,
      "Ġanim": 5867,
      "ls": 5868,
      "ĠnÃ£o": 5869,
      "duct": 5870,
      "Ðĵ": 5871,
      "Ð½ÑĭÐ¼": 5872,
      "Class": 5873,
      "ÐºÑĢÐ°": 5874,
      "Ġcommon": 5875,
      "áº·": 5876,
      "íĻĶ": 5877,
      "omas": 5878,
      "jet": 5879,
      "éķ¿": 5880,
      "ben": 5881,
      "box": 5882,
      "ila": 5883,
      "Context": 5884,
      "Ãī": 5885,
      "oj": 5886,
      "ĠPre": 5887,
      "ilar": 5888,
      "uns": 5889,
      "Ġprime": 5890,
      "www": 5891,
      "ĠOff": 5892,
      "idades": 5893,
      "wiki": 5894,
      "Ġequip": 5895,
      "--------------------------------": 5896,
      "Ġthird": 5897,
      "burg": 5898,
      "ĠRich": 5899,
      "ĠJapan": 5900,
      "Ġdate": 5901,
      "Ġcreated": 5902,
      "hold": 5903,
      "ĠÐ±ÑĭÐ»": 5904,
      "title": 5905,
      "aged": 5906,
      "dy": 5907,
      "Ð¾ÑĹ": 5908,
      "UN": 5909,
      "ormal": 5910,
      "Ġuit": 5911,
      "._": 5912,
      "æģ": 5913,
      "aring": 5914,
      "Ġheld": 5915,
      "Ġfocus": 5916,
      "ĠVol": 5917,
      "ÑĸÑĹ": 5918,
      "imp": 5919,
      "Ġcam": 5920,
      "ÅĤa": 5921,
      "uh": 5922,
      "Ġreceived": 5923,
      "idae": 5924,
      "Ġesp": 5925,
      "och": 5926,
      "undo": 5927,
      "ÏĥÎµ": 5928,
      "ĠStr": 5929,
      "æ²»": 5930,
      "Bl": 5931,
      "Ġtoget": 5932,
      "ìŀ¥": 5933,
      "ĠSaint": 5934,
      "Ġproperty": 5935,
      "Ġdeter": 5936,
      "Ġzu": 5937,
      "Ð¾Ð³ÑĢÐ°": 5938,
      "è²": 5939,
      "ĠÑģÐ¾ÑģÑĤ": 5940,
      "Ġtogether": 5941,
      "down": 5942,
      "Ġmoney": 5943,
      "Ġmom": 5944,
      "Ġband": 5945,
      "Ã©g": 5946,
      "Ġë¶": 5947,
      "Sc": 5948,
      "Ġpage": 5949,
      "Ġrole": 5950,
      "larÄ±": 5951,
      "ady": 5952,
      "Ġfeatures": 5953,
      "ÑĢÐ°Ð·": 5954,
      "ĠMa": 5955,
      "raz": 5956,
      "ither": 5957,
      "adores": 5958,
      "Ġzijn": 5959,
      "itect": 5960,
      "Ġeconom": 5961,
      "Ġsix": 5962,
      "Ġexc": 5963,
      "gt": 5964,
      "iÃ©n": 5965,
      "Ġblock": 5966,
      "ĠGet": 5967,
      "éķ·": 5968,
      "Event": 5969,
      "rea": 5970,
      "board": 5971,
      "ÑĤÑĥ": 5972,
      "Ð¾ÑĢÐ¾Ð´": 5973,
      "Ġweb": 5974,
      "Ġmi": 5975,
      "Ġsource": 5976,
      "ĠÄĳá»Ļ": 5977,
      "ëĵľ": 5978,
      "ĠÏĮ": 5979,
      "ãģĤãĤĭ": 5980,
      "Ġinvol": 5981,
      "èĳ": 5982,
      "Service": 5983,
      "igen": 5984,
      "ĠAlex": 5985,
      "Ġcoll": 5986,
      "esch": 5987,
      "Ġfig": 5988,
      "æ®": 5989,
      "iction": 5990,
      "Ġcur": 5991,
      "åŁº": 5992,
      "Ġot": 5993,
      "Ġnom": 5994,
      "Ġá»Ł": 5995,
      "Text": 5996,
      "ises": 5997,
      "ĠÐ¿ÑĢÐµÐ´": 5998,
      "æŃ¤": 5999,
      "à¤£": 6000,
      "uments": 6001,
      "Ð½Ð¸Ð¹": 6002,
      "Ġaddress": 6003,
      "ensive": 6004,
      "ÐµÐ³": 6005,
      "ilder": 6006,
      "Ġsomething": 6007,
      "áºŃt": 6008,
      "ĠSam": 6009,
      "php": 6010,
      "ĠAdd": 6011,
      "igned": 6012,
      "Path": 6013,
      "Ð¾Ñİ": 6014,
      "Ġespecial": 6015,
      "ĠJames": 6016,
      "iforn": 6017,
      "Ġfive": 6018,
      "çĶµ": 6019,
      "ï¼īï¼Į": 6020,
      "acing": 6021,
      "Ð¢": 6022,
      "Ġmax": 6023,
      "ĠChampionship": 6024,
      "iá»ģ": 6025,
      "éĥ½": 6026,
      "rick": 6027,
      "Ġsoft": 6028,
      "Ġtown": 6029,
      "ĠMont": 6030,
      "Ġoptions": 6031,
      "ĠRev": 6032,
      "iers": 6033,
      "Ġhold": 6034,
      "ãĤ£": 6035,
      "ĠRoy": 6036,
      "ĠMod": 6037,
      "Ġfeature": 6038,
      "ÑĳÐ½": 6039,
      "ĠHen": 6040,
      "ãģı": 6041,
      "ĠWilliam": 6042,
      "Ġage": 6043,
      "nia": 6044,
      "Ġê·¸": 6045,
      "Ġstarted": 6046,
      "Ġbenef": 6047,
      "Ġlui": 6048,
      "æĿ±": 6049,
      "Ser": 6050,
      "cu": 6051,
      "ÑĭÑħ": 6052,
      "ĠMet": 6053,
      "Map": 6054,
      "éĩį": 6055,
      "ÑĭÐ¹": 6056,
      "[]": 6057,
      "Ġpopulation": 6058,
      "igr": 6059,
      "zie": 6060,
      "ĠÎ½Î±": 6061,
      "Ġok": 6062,
      "blic": 6063,
      "ĠGod": 6064,
      "';": 6065,
      "Î¯Î±ÏĤ": 6066,
      "ÑĭÐµ": 6067,
      "Ġà¤ī": 6068,
      "Ġpast": 6069,
      "Ġgrup": 6070,
      "'m": 6071,
      "atter": 6072,
      "lient": 6073,
      "Ð°Ð½Ð¾Ð²": 6074,
      "Po": 6075,
      "Ð¸ÑĤÐµÐ»ÑĮ": 6076,
      "Ġalg": 6077,
      "ĠKh": 6078,
      "ĠØ§Ø³Øª": 6079,
      "ĠCollege": 6080,
      "ĠfÃ¼r": 6081,
      "Ġrequired": 6082,
      "Ġremain": 6083,
      "And": 6084,
      "ably": 6085,
      "though": 6086,
      "Ġcertain": 6087,
      "wi": 6088,
      "ìłķ": 6089,
      "Ġlocated": 6090,
      "á»ĳc": 6091,
      "ÑĸÐ»ÑĮ": 6092,
      "Ġjed": 6093,
      "Ġacross": 6094,
      "aki": 6095,
      "Ġred": 6096,
      "raph": 6097,
      "asa": 6098,
      "cil": 6099,
      "ĠCap": 6100,
      "å½±": 6101,
      "Ġvarious": 6102,
      "ĠÑĥÑĩ": 6103,
      "æ°´": 6104,
      "Ġbegan": 6105,
      "ĠList": 6106,
      "×ķ×ł": 6107,
      "Is": 6108,
      "ĠLondon": 6109,
      "ãĢİ": 6110,
      "ãĢı": 6111,
      "ëį": 6112,
      "Ġsignific": 6113,
      "çĶ°": 6114,
      "ĠEnglish": 6115,
      "ĠtambÃ©m": 6116,
      "ĠCam": 6117,
      "Ġprevious": 6118,
      "Ð£": 6119,
      "ising": 6120,
      "ÃŃm": 6121,
      "ÐµÑħ": 6122,
      "Ġses": 6123,
      "perties": 6124,
      "ĠSing": 6125,
      "ables": 6126,
      "utes": 6127,
      "×ķ×Ł": 6128,
      "ÑĢÑĥÐ³": 6129,
      "Ø°": 6130,
      "atan": 6131,
      "§ółģ": 6132,
      "ółģ§ółģ": 6133,
      "item": 6134,
      "ector": 6135,
      "Ad": 6136,
      "Ġfood": 6137,
      "Out": 6138,
      "Ġpress": 6139,
      "Ġlive": 6140,
      "azione": 6141,
      "ws": 6142,
      "aar": 6143,
      "ç³»": 6144,
      "Ġresults": 6145,
      "ÈĽi": 6146,
      "Ġneeds": 6147,
      "ĠRet": 6148,
      "Ġwurde": 6149,
      "ental": 6150,
      "åŁİ": 6151,
      "Ð¸ÑĤÑĮ": 6152,
      "Field": 6153,
      "ĠEs": 6154,
      "fÃ©r": 6155,
      "Ġimage": 6156,
      "position": 6157,
      "LO": 6158,
      "ĠÑĩÑĤÐ¾": 6159,
      "ĠÙ¾": 6160,
      "Ġmeans": 6161,
      "erk": 6162,
      "Ġautom": 6163,
      "çĽ¸": 6164,
      "ottom": 6165,
      "ÏģÎ¹": 6166,
      "CT": 6167,
      "olean": 6168,
      "Ġpoints": 6169,
      "vi": 6170,
      "ĠHouse": 6171,
      "Ġwomen": 6172,
      "imin": 6173,
      "ibility": 6174,
      "mark": 6175,
      "æ©": 6176,
      "unk": 6177,
      "ĠÐ§": 6178,
      "æŃ£": 6179,
      "ÏĮÏĤ": 6180,
      "Ä±k": 6181,
      "acht": 6182,
      "Ġothers": 6183,
      "¢×ľ": 6184,
      "Ġadalah": 6185,
      "Ġdeb": 6186,
      "Ġdepend": 6187,
      "func": 6188,
      "ummer": 6189,
      "unch": 6190,
      "Î»Î·": 6191,
      "osa": 6192,
      "ĠOb": 6193,
      "with": 6194,
      "Ġcourse": 6195,
      "ography": 6196,
      "aciones": 6197,
      "ĠSen": 6198,
      "ĠTer": 6199,
      "ĠISBN": 6200,
      "creen": 6201,
      "ede": 6202,
      "å¢": 6203,
      "Ġdesc": 6204,
      "Ã§o": 6205,
      "å½ĵ": 6206,
      "Ġthrow": 6207,
      "Ġnetwork": 6208,
      "ono": 6209,
      "=\"/": 6210,
      "width": 6211,
      "ergy": 6212,
      "ponent": 6213,
      "æĽ²": 6214,
      "åł´": 6215,
      "æ¡": 6216,
      "yt": 6217,
      "ãģį": 6218,
      "Ġhá»į": 6219,
      "ĠØ¨Ø±": 6220,
      "Ġintro": 6221,
      "ÑĥÐ·": 6222,
      "åĭķ": 6223,
      "ìĽĲ": 6224,
      "ëĵ¤": 6225,
      "Ġhistor": 6226,
      "Ð¾Ñı": 6227,
      "ĠĊĠĊ": 6228,
      "ĠÑģÐ»": 6229,
      "Ġuntuk": 6230,
      "eme": 6231,
      "elling": 6232,
      "ĠÏĦÎ¿Î½": 6233,
      "Ġcompan": 6234,
      "Ġimplement": 6235,
      "¡°": 6236,
      "Ġdeg": 6237,
      "fil": 6238,
      "ãĥĨ": 6239,
      "ÃŃnh": 6240,
      "Ġcin": 6241,
      "Ġaway": 6242,
      "Ġfost": 6243,
      "nes": 6244,
      "Ġincluded": 6245,
      "ournal": 6246,
      "mat": 6247,
      "ĠBest": 6248,
      "dev": 6249,
      "Ġreview": 6250,
      "now": 6251,
      "avy": 6252,
      "ĠTom": 6253,
      "ãĤ°": 6254,
      "fort": 6255,
      "Film": 6256,
      "Over": 6257,
      "å¹¶": 6258,
      "ĠTor": 6259,
      "ĠNa": 6260,
      "Ġlik": 6261,
      "Ġ×ŀ": 6262,
      "æķ°": 6263,
      "isl": 6264,
      "nb": 6265,
      "Ph": 6266,
      "Ġste": 6267,
      "Ã¡p": 6268,
      "iento": 6269,
      "¹Ħ": 6270,
      "lands": 6271,
      "useum": 6272,
      "ĠÃ©tÃ©": 6273,
      "Ġsche": 6274,
      "Ð»Ð°ÑģÑĤ": 6275,
      "ouch": 6276,
      "open": 6277,
      "Ð¼ÐµÑĢ": 6278,
      "Ġmodern": 6279,
      "aking": 6280,
      "ĠGi": 6281,
      "áºŃn": 6282,
      "struct": 6283,
      "ĠMag": 6284,
      "book": 6285,
      "å¯¹": 6286,
      "ĠØ¥": 6287,
      "ÃŃc": 6288,
      "à¤¥": 6289,
      "ĠFre": 6290,
      "soft": 6291,
      "oi": 6292,
      "ville": 6293,
      "andid": 6294,
      "pu": 6295,
      "Ġhuman": 6296,
      "ership": 6297,
      "Ġunderstand": 6298,
      "ication": 6299,
      "/*": 6300,
      "Item": 6301,
      "Ġalready": 6302,
      "iego": 6303,
      "pat": 6304,
      "Ð»Ð°Ð²": 6305,
      "Pol": 6306,
      "Ġunivers": 6307,
      "Ġinternational": 6308,
      "ĠSl": 6309,
      "ÃŃst": 6310,
      "Ġmedia": 6311,
      "ĠZe": 6312,
      "Ġstation": 6313,
      "Ġëª": 6314,
      "ĠBlack": 6315,
      "Ġquality": 6316,
      "Ġdeux": 6317,
      "Ġplayers": 6318,
      "Ġach": 6319,
      "ĠÎ²": 6320,
      "Ġamong": 6321,
      "Ġadministr": 6322,
      "ÑĢÑĭ": 6323,
      "è°": 6324,
      "rix": 6325,
      "ìĥģ": 6326,
      "estival": 6327,
      "MA": 6328,
      "json": 6329,
      "pmwiki": 6330,
      "Ġworks": 6331,
      "ìĿ´ëĭ¤": 6332,
      "åħĥ": 6333,
      "ëĲĺ": 6334,
      "body": 6335,
      "Ġdam": 6336,
      "Ġround": 6337,
      "Ã¡ch": 6338,
      "ÑĥÐ»ÑĮ": 6339,
      "Ġpurch": 6340,
      "ĠGeorge": 6341,
      "Ġlow": 6342,
      "ĠKar": 6343,
      "ĠÑĢÐ°Ð¹": 6344,
      "leri": 6345,
      "à¤¼": 6346,
      "ĠInter": 6347,
      "Ġcred": 6348,
      "ÏīÏĤ": 6349,
      "ĠCast": 6350,
      "Ġhon": 6351,
      "];": 6352,
      "Ġdecl": 6353,
      "èº": 6354,
      "Ġgot": 6355,
      "Ġnamed": 6356,
      "Ø§Ø³": 6357,
      "summary": 6358,
      "Ġdir": 6359,
      "asil": 6360,
      "ĠInstit": 6361,
      "Ġmel": 6362,
      "Ġpremi": 6363,
      "Î¸Î·": 6364,
      "iá»ĩn": 6365,
      "Ð½Ð¸Ñħ": 6366,
      "ĠYear": 6367,
      "Ġgrand": 6368,
      "Ġmultip": 6369,
      "eles": 6370,
      "portun": 6371,
      "ÐĽ": 6372,
      "lymp": 6373,
      "Î»Îµ": 6374,
      "input": 6375,
      "trans": 6376,
      "Ð°ÑĢÐ°": 6377,
      "idence": 6378,
      "áº£n": 6379,
      "ivil": 6380,
      "ìĻĢ": 6381,
      "áº£i": 6382,
      "otal": 6383,
      "orage": 6384,
      "Ġassist": 6385,
      "Ġconse": 6386,
      "Ġpur": 6387,
      "ĠSur": 6388,
      "Ġinput": 6389,
      "Ġbis": 6390,
      "Ġtour": 6391,
      "Ġspace": 6392,
      "ä¸ľ": 6393,
      "Ð°Ð½Ð½Ñı": 6394,
      "Ġcharacter": 6395,
      "Ġsv": 6396,
      "æľĥ": 6397,
      "éħ": 6398,
      "Ġrap": 6399,
      "Ġabs": 6400,
      "Ġofficial": 6401,
      "CC": 6402,
      "ĠCons": 6403,
      "ëŁ": 6404,
      "df": 6405,
      "åĪĹ": 6406,
      "ãĤģ": 6407,
      "asta": 6408,
      "åı¸": 6409,
      "Date": 6410,
      "ĠDel": 6411,
      "ãģĭãĤī": 6412,
      "EL": 6413,
      "anks": 6414,
      "ÙĬØ±": 6415,
      "rench": 6416,
      "las": 6417,
      "Ġmeng": 6418,
      "encias": 6419,
      "inner": 6420,
      "Ġbit": 6421,
      "Ġtreat": 6422,
      "Ġà¤Ĺ": 6423,
      "ĠÐ´Ðµ": 6424,
      "nÃ©": 6425,
      "ĠMac": 6426,
      "Ġnorth": 6427,
      "assert": 6428,
      "Ġonce": 6429,
      "éŁ³": 6430,
      "lor": 6431,
      "ĠTur": 6432,
      "éĵ": 6433,
      "ØªØ±": 6434,
      "imento": 6435,
      "æº": 6436,
      "å¡": 6437,
      "ovÃ¡": 6438,
      "ikan": 6439,
      "Ġì¶": 6440,
      "uv": 6441,
      "åĸ": 6442,
      "****************": 6443,
      "IP": 6444,
      "Ġcontact": 6445,
      "Param": 6446,
      "ìłĦ": 6447,
      "ĠIndia": 6448,
      "oman": 6449,
      "Ġrep": 6450,
      "AB": 6451,
      "Ġspecific": 6452,
      "attle": 6453,
      "Ġannoun": 6454,
      "ÏģÎ¬": 6455,
      "ahr": 6456,
      "ĠÐķ": 6457,
      "Response": 6458,
      "ÑĢÐµÐ¼": 6459,
      "ĠCaliforn": 6460,
      "iler": 6461,
      "New": 6462,
      "ografia": 6463,
      "info": 6464,
      "Ġproduction": 6465,
      "ĠThat": 6466,
      "Ġdep": 6467,
      "Ġà¤Ķ": 6468,
      "Na": 6469,
      "Ð°Ð¼Ð¸": 6470,
      "Ġroz": 6471,
      "Ġsau": 6472,
      "Ġkind": 6473,
      "ìĦ±": 6474,
      "Ġresponse": 6475,
      "Ä±m": 6476,
      "imate": 6477,
      "Ġtw": 6478,
      "ÏĥÏĦ": 6479,
      "olf": 6480,
      "Code": 6481,
      "Val": 6482,
      "Ð¾ÑģÑģ": 6483,
      "icles": 6484,
      "Ġprz": 6485,
      "å¼Ģ": 6486,
      "Ġsold": 6487,
      "Ġplayer": 6488,
      "Hist": 6489,
      "åı²": 6490,
      "Ġgrou": 6491,
      "Ð½Ð¾Ð¼": 6492,
      "ĠØ§ÙĦØ£": 6493,
      "Ð½Ð¾Ðµ": 6494,
      "Be": 6495,
      "ĠHo": 6496,
      "Ġaction": 6497,
      "×ķ×ľ": 6498,
      "pg": 6499,
      "IL": 6500,
      "Ġrelations": 6501,
      "ÑĸÑı": 6502,
      "ĠJack": 6503,
      "image": 6504,
      "Ġroom": 6505,
      "ahun": 6506,
      "à¤ļ": 6507,
      "Ġinstall": 6508,
      "Ġinitial": 6509,
      "Ġphys": 6510,
      "istic": 6511,
      "Ġdalam": 6512,
      "Ð¾ÑĢÐ°": 6513,
      "iene": 6514,
      "åŃ¸": 6515,
      "ĠGeneral": 6516,
      "Ġengine": 6517,
      "ĠÐ²Ð¾": 6518,
      "ĠvÃło": 6519,
      "Ġaw": 6520,
      "iddle": 6521,
      "Ð»ÐµÐº": 6522,
      "Ġaus": 6523,
      "ached": 6524,
      "joy": 6525,
      "++": 6526,
      "Ġkom": 6527,
      "ĠItal": 6528,
      "éĸĭ": 6529,
      "èĭ±": 6530,
      "Ð¸Ð³": 6531,
      "ĠRobert": 6532,
      "Ġir": 6533,
      "Ġsym": 6534,
      "Il": 6535,
      "Int": 6536,
      "rest": 6537,
      "ively": 6538,
      "indow": 6539,
      "akt": 6540,
      "Æ°á»Ŀng": 6541,
      "unda": 6542,
      "Ġcell": 6543,
      "Ġyoung": 6544,
      "Ã§ais": 6545,
      "æİ¥": 6546,
      "æł¼": 6547,
      "èĻ": 6548,
      "Ã«": 6549,
      "ĠCO": 6550,
      "ÏģÎ¯": 6551,
      "Ġprincipal": 6552,
      "Message": 6553,
      "iá»ĥ": 6554,
      "Reg": 6555,
      "Ġeasy": 6556,
      "ĠOs": 6557,
      "Ð¸Ð½Ð¸": 6558,
      "Ġfar": 6559,
      "ÑĥÐ¼": 6560,
      "area": 6561,
      "AG": 6562,
      "Ġfront": 6563,
      "result": 6564,
      "Ġfinanc": 6565,
      "áº¿n": 6566,
      "åĵ¡": 6567,
      "Ġsouth": 6568,
      "Ġ);": 6569,
      "ãĥŀ": 6570,
      "Ã±a": 6571,
      "Ġteach": 6572,
      "obile": 6573,
      "ĠAssoci": 6574,
      "Ġbi": 6575,
      "Log": 6576,
      "Ð¤": 6577,
      "Ġpal": 6578,
      "Ġtax": 6579,
      "Ġ__": 6580,
      "ãĤ³": 6581,
      "uff": 6582,
      "Ġà¤Ķà¤°": 6583,
      "ĠÙħÛĮ": 6584,
      "ipe": 6585,
      "Î¿Î»": 6586,
      "ĊĠĠĠĠĠĠĠĠĠĠĠĠĠ": 6587,
      "Ġparam": 6588,
      "oke": 6589,
      "gal": 6590,
      "eds": 6591,
      "ship": 6592,
      "aram": 6593,
      "TR": 6594,
      "Ġza": 6595,
      "rd": 6596,
      "Ġze": 6597,
      "Ġoc": 6598,
      "åĵģ": 6599,
      "ĠSa": 6600,
      "ĠthÃ¡ng": 6601,
      "äºļ": 6602,
      "Ġclaim": 6603,
      "Of": 6604,
      "¤ĳ": 6605,
      "å¸ĥ": 6606,
      "Ġsig": 6607,
      "æĴ": 6608,
      "Ġont": 6609,
      "Ġkar": 6610,
      "iáº¿n": 6611,
      "imum": 6612,
      "ĉĉĉĉ": 6613,
      "Ġcommand": 6614,
      "Node": 6615,
      "è½¦": 6616,
      "ļĮ": 6617,
      "Ġdivers": 6618,
      "Ġdurante": 6619,
      "å³": 6620,
      "ibrary": 6621,
      "Ġbelow": 6622,
      "agai": 6623,
      "ãĤª": 6624,
      "Ġfuture": 6625,
      "Ġenvironment": 6626,
      "Ġlooking": 6627,
      "Ð»Ñİ": 6628,
      "Ġquick": 6629,
      "áº¿t": 6630,
      "Ġprob": 6631,
      "itional": 6632,
      "BS": 6633,
      "Ġled": 6634,
      "Ġsearch": 6635,
      "iny": 6636,
      "state": 6637,
      "Ð°Ð¿": 6638,
      "oir": 6639,
      "æ¸¯": 6640,
      "Ġcame": 6641,
      "Ġìĭľ": 6642,
      "Ġpan": 6643,
      "Ġmakes": 6644,
      "can": 6645,
      "Ġaan": 6646,
      "ĠÏĢÎ¿Ïħ": 6647,
      "Ġpela": 6648,
      "ĠGroup": 6649,
      "IG": 6650,
      "ombre": 6651,
      "style": 6652,
      "ĠÏĦÏīÎ½": 6653,
      "ociety": 6654,
      "wood": 6655,
      "ixed": 6656,
      "Ġstd": 6657,
      "Î½Î·": 6658,
      "Categ": 6659,
      "Ġrespect": 6660,
      "elij": 6661,
      "ĠHistory": 6662,
      "Ġsá»ĳ": 6663,
      "Ġjako": 6664,
      "ĠìĪĺ": 6665,
      "ĠMusic": 6666,
      "Ġfam": 6667,
      "Ġdone": 6668,
      "ĠÑģÐ¾": 6669,
      "alls": 6670,
      "Ġstory": 6671,
      "ĠAward": 6672,
      "ersion": 6673,
      "gram": 6674,
      "ĠÃ¡": 6675,
      "Ġcele": 6676,
      "Ġplatform": 6677,
      "idge": 6678,
      "ĠJean": 6679,
      "Ġmessage": 6680,
      "core": 6681,
      "posed": 6682,
      "Ġtoday": 6683,
      "Trans": 6684,
      "Ð¸Ð»Ð°": 6685,
      "lant": 6686,
      "pring": 6687,
      "aro": 6688,
      "ampion": 6689,
      "awa": 6690,
      "MS": 6691,
      "èº«": 6692,
      "ĠIN": 6693,
      "Ð°Ð½Ð°": 6694,
      "Ġstrong": 6695,
      "omet": 6696,
      "Ġsepar": 6697,
      "Ġperformance": 6698,
      "ĠOut": 6699,
      "Ġcontr": 6700,
      "Size": 6701,
      "ä½Ĩ": 6702,
      "Table": 6703,
      "Ġinflu": 6704,
      "ðŁĩ¸": 6705,
      "Ġprovided": 6706,
      "Ġbuy": 6707,
      "Ġnecess": 6708,
      "ĠCalifornia": 6709,
      "è¿Ļ": 6710,
      "ÏĦÎ±Î½": 6711,
      "ÏģÎ³": 6712,
      "Ġevents": 6713,
      "åŀ": 6714,
      "Ø§Ø¹": 6715,
      "abled": 6716,
      "itz": 6717,
      "ĠÐ¾Ð¿": 6718,
      "ÎµÏĦ": 6719,
      "Up": 6720,
      "åĽŀ": 6721,
      "ĠIII": 6722,
      "Ġcontext": 6723,
      "êµĲ": 6724,
      "ĠLo": 6725,
      "rod": 6726,
      "ãĥī": 6727,
      "Ġmiss": 6728,
      "ĠChina": 6729,
      "Ġrepl": 6730,
      "ĠHa": 6731,
      "ĠÙĬ": 6732,
      "Ġstudy": 6733,
      "start": 6734,
      "SE": 6735,
      "ĠÎŁ": 6736,
      "block": 6737,
      "ĠJust": 6738,
      "ĠForm": 6739,
      "Ġstop": 6740,
      "æ¯Ķ": 6741,
      "ĠTra": 6742,
      "From": 6743,
      "medi": 6744,
      "ÙĦÙī": 6745,
      "Ø§Ùģ": 6746,
      "åºľ": 6747,
      "Ð²ÐµÑĢ": 6748,
      "ĠÅŁ": 6749,
      "Ġà¤Ń": 6750,
      "á»ķ": 6751,
      "esi": 6752,
      "content": 6753,
      "ĠEast": 6754,
      "Ġabove": 6755,
      "ban": 6756,
      "aker": 6757,
      "Ġborder": 6758,
      "Ġpublished": 6759,
      "ĠìķĦ": 6760,
      "Ã¢y": 6761,
      "ĠCanada": 6762,
      "åı·": 6763,
      "éĸĵ": 6764,
      "sm": 6765,
      "Ġapplication": 6766,
      "ĠÏĥÎµ": 6767,
      "Ġjug": 6768,
      "Ġmean": 6769,
      "ube": 6770,
      "Ġappear": 6771,
      "Ġindustry": 6772,
      "Ac": 6773,
      "ÐµÑĨ": 6774,
      "ĠDef": 6775,
      "ìłģ": 6776,
      "Ġkil": 6777,
      "Ġcomes": 6778,
      "Ġamount": 6779,
      "Ø¨Ø±": 6780,
      "ker": 6781,
      "Ass": 6782,
      "ĠNone": 6783,
      "ĠÐ¾Ðº": 6784,
      "Ġlic": 6785,
      "itted": 6786,
      "rew": 6787,
      "rij": 6788,
      "Ġà¤ı": 6789,
      "iqu": 6790,
      "ĠArg": 6791,
      "ĠÐ°Ð²": 6792,
      "Ġwy": 6793,
      "Ġbul": 6794,
      "ĠSci": 6795,
      "ç¸": 6796,
      "anger": 6797,
      "Ġserved": 6798,
      "Ġsimilar": 6799,
      "ĠUp": 6800,
      "ĠWil": 6801,
      "æ£": 6802,
      "oma": 6803,
      "abase": 6804,
      "Hand": 6805,
      "Ġcer": 6806,
      "ĠMichael": 6807,
      "äº¬": 6808,
      "esso": 6809,
      "è¿Ĳ": 6810,
      "á»ĵ": 6811,
      "itte": 6812,
      "iger": 6813,
      "nbsp": 6814,
      "sl": 6815,
      "Ġpow": 6816,
      "duction": 6817,
      "Ġsen": 6818,
      "There": 6819,
      "Û°": 6820,
      "most": 6821,
      "lia": 6822,
      "ĠSil": 6823,
      "æ¹": 6824,
      "å¿ĥ": 6825,
      "umer": 6826,
      "Ð±Ð¾ÑĤ": 6827,
      "ving": 6828,
      "fa": 6829,
      "esse": 6830,
      "ìļ°": 6831,
      "Rec": 6832,
      "pol": 6833,
      "When": 6834,
      "function": 6835,
      "ĠÐºÐ°Ðº": 6836,
      "Ġpie": 6837,
      "ç©º": 6838,
      "Ġ×Ķ×ŀ×": 6839,
      "Ġsort": 6840,
      "äº¤": 6841,
      "Ġregion": 6842,
      "Ġ\"\",": 6843,
      "Ġnatural": 6844,
      "Ġcompanies": 6845,
      "ÐŁÑĢÐ¸Ð¼": 6846,
      "ÄŁÄ±": 6847,
      "ishing": 6848,
      "ĠDis": 6849,
      "])": 6850,
      "Ġcomput": 6851,
      "utions": 6852,
      "icrosoft": 6853,
      "ĠLeg": 6854,
      "ĠFrench": 6855,
      "fÃ©rences": 6856,
      "BA": 6857,
      "Ġpel": 6858,
      "æį": 6859,
      "Ġfurther": 6860,
      "Ð¸Ñİ": 6861,
      "Ġ/*": 6862,
      "Client": 6863,
      "ÐĹ": 6864,
      "Ãªncia": 6865,
      "ä¸ŃåĽ½": 6866,
      "ordin": 6867,
      "Ġ\"\"\"": 6868,
      "ĠAut": 6869,
      "ĠÐ¨": 6870,
      "istry": 6871,
      "Ð°ÑĢÐ¸": 6872,
      "ĳ×¨": 6873,
      "Ġtá»«": 6874,
      "Ð¸ÑĨ": 6875,
      "ULL": 6876,
      "éĽĨ": 6877,
      "ĠJun": 6878,
      "ĠSub": 6879,
      "Æ°á»Ľc": 6880,
      "çķĮ": 6881,
      "ĠCenter": 6882,
      "åķ": 6883,
      "Ġì§Ģ": 6884,
      "Ġtahun": 6885,
      "Ġcollection": 6886,
      "ĠFirst": 6887,
      "Ġanal": 6888,
      "Ġsil": 6889,
      "å¤ª": 6890,
      "gar": 6891,
      "ÑĸÑģÑĤ": 6892,
      "ĠGold": 6893,
      "ING": 6894,
      "Ġprot": 6895,
      "ĠPan": 6896,
      "SP": 6897,
      "Ġcomme": 6898,
      "create": 6899,
      "Ġindic": 6900,
      "Ġê¸°": 6901,
      "ÛĮØ±": 6902,
      "web": 6903,
      "oz": 6904,
      "Ġdip": 6905,
      "ĠQue": 6906,
      "è»Ĭ": 6907,
      "iller": 6908,
      "Ġphot": 6909,
      "Ġrelig": 6910,
      "Ġrealiz": 6911,
      "db": 6912,
      "Element": 6913,
      "Ġpelo": 6914,
      "udio": 6915,
      "ÑģÑĤÐ²Ð°": 6916,
      "Ġcontract": 6917,
      "Ġprem": 6918,
      "Ġmach": 6919,
      "Ġopportun": 6920,
      "Ġnav": 6921,
      "Ġ×Ľ×": 6922,
      "ients": 6923,
      "Ġê°Ģ": 6924,
      "Ġleast": 6925,
      "hand": 6926,
      "ĠCour": 6927,
      "error": 6928,
      "aging": 6929,
      "Ġliter": 6930,
      "oot": 6931,
      "ĠFrancis": 6932,
      "iens": 6933,
      "Ġstatus": 6934,
      "ĠfranÃ§ais": 6935,
      "Ġclient": 6936,
      "ping": 6937,
      "æľº": 6938,
      "unicipal": 6939,
      "Ġdell": 6940,
      "Ġcompon": 6941,
      "Î»Î±": 6942,
      "isation": 6943,
      "Ġwhether": 6944,
      "issance": 6945,
      "si": 6946,
      "Ġadded": 6947,
      "æĶ¹": 6948,
      "Ð¸Ð¼Ð¸": 6949,
      "Ġwent": 6950,
      "ĠtambiÃ©n": 6951,
      "Model": 6952,
      "hib": 6953,
      "ÑģÑģ": 6954,
      "ĠBa": 6955,
      "pan": 6956,
      "Ġdisplay": 6957,
      "asing": 6958,
      "Ġsrc": 6959,
      "Ã¶n": 6960,
      "åĽĽ": 6961,
      "á»Ń": 6962,
      "Cre": 6963,
      "\"|": 6964,
      "íĶ": 6965,
      "Ġhowever": 6966,
      "TE": 6967,
      "MP": 6968,
      "ĠthÃłnh": 6969,
      "label": 6970,
      "flow": 6971,
      "æĿĳ": 6972,
      "Ãłn": 6973,
      "ĠÎ³Î¹Î±": 6974,
      "ãģĳ": 6975,
      "Ġaver": 6976,
      "ç¥ŀ": 6977,
      "ĠGrand": 6978,
      "ĠSk": 6979,
      "Ġrev": 6980,
      "rat": 6981,
      "ĠFrank": 6982,
      "Ġmonths": 6983,
      "amespace": 6984,
      "Ġareas": 6985,
      "vey": 6986,
      "èĹ": 6987,
      "url": 6988,
      "Index": 6989,
      "Ġplant": 6990,
      "Ġintegr": 6991,
      "ĠNam": 6992,
      "Ġcard": 6993,
      "Ã¨me": 6994,
      "arth": 6995,
      "à¤ı": 6996,
      "Ġcentury": 6997,
      "Ġci": 6998,
      "ĊĊĉ": 6999,
      "rian": 7000,
      "ÑģÑĤÐ¾ÑĢ": 7001,
      "define": 7002,
      "Att": 7003,
      "Ġenjoy": 7004,
      "ĠSet": 7005,
      "enne": 7006,
      "Ġchanges": 7007,
      "ĠÐŃ": 7008,
      "ĠWeb": 7009,
      "ĠDistrict": 7010,
      "ĠMel": 7011,
      "ÎµÎ½": 7012,
      "Ġtraining": 7013,
      "ĠMount": 7014,
      "Opt": 7015,
      "á»į": 7016,
      "ĠAmerica": 7017,
      "ãĥĲ": 7018,
      "Ġaccept": 7019,
      "ederal": 7020,
      "Ãªs": 7021,
      "ĠSol": 7022,
      "ĠLand": 7023,
      "ellow": 7024,
      "ãģ£ãģ¦": 7025,
      "ĠSome": 7026,
      "ĠSu": 7027,
      "Ġborn": 7028,
      "ï¼Ľ": 7029,
      "background": 7030,
      "kow": 7031,
      "Ġmoment": 7032,
      "Ã´n": 7033,
      "Ġtypes": 7034,
      "ç±³": 7035,
      "ĺ×": 7036,
      "IV": 7037,
      "InfoBox": 7038,
      "èµ·": 7039,
      "ĠÐ´Ð²": 7040,
      "alle": 7041,
      "rec": 7042,
      "Ġregular": 7043,
      "Ġded": 7044,
      "Ġà¤¤": 7045,
      "ÐµÐ±": 7046,
      "ĠÏĥÏĦÎ·Î½": 7047,
      "Ġface": 7048,
      "ĠÚ©Ùĩ": 7049,
      "×ķ×¨×": 7050,
      "ĠParty": 7051,
      "Ġrecomm": 7052,
      "cret": 7053,
      "Ġoffice": 7054,
      "ĠÐµÐ³Ð¾": 7055,
      "roid": 7056,
      "node": 7057,
      "Ġord": 7058,
      "ĠTest": 7059,
      "ëıĻ": 7060,
      "Ġissues": 7061,
      "Ġviol": 7062,
      "Â²": 7063,
      "ĠAustralia": 7064,
      "ĠiÃ§": 7065,
      "Ġngh": 7066,
      "formation": 7067,
      "ĠÑĢÐ¾ÐºÑĥ": 7068,
      "Ġìłľ": 7069,
      "Ġcz": 7070,
      "åĶ": 7071,
      "ĠCharles": 7072,
      "Ð¸Ð¿": 7073,
      "Ġom": 7074,
      "Ġbirth": 7075,
      "èı": 7076,
      "Ġeither": 7077,
      "áºŃp": 7078,
      "Ġkter": 7079,
      "Ð°ÑĢÑĤ": 7080,
      "Inter": 7081,
      "ãģĬ": 7082,
      "ĠFe": 7083,
      "ifier": 7084,
      "iden": 7085,
      "æ¥Ń": 7086,
      "iner": 7087,
      "Î¼ÎŃ": 7088,
      "Ġenter": 7089,
      "oved": 7090,
      "nel": 7091,
      "ĠRiver": 7092,
      "ĠHall": 7093,
      "ioni": 7094,
      "ãĤµ": 7095,
      "Ã³d": 7096,
      "Ġsist": 7097,
      "ĠCompany": 7098,
      "ĠFlor": 7099,
      "((": 7100,
      "Î¿ÏĤ": 7101,
      "Ġvalues": 7102,
      "ë¥´": 7103,
      "ÙĪÙħ": 7104,
      "æĵ": 7105,
      "room": 7106,
      "itter": 7107,
      "gin": 7108,
      "Ġterrit": 7109,
      "Ġwidth": 7110,
      "ãĥ¡": 7111,
      "aven": 7112,
      "ÙĩØ±": 7113,
      "ĠCamp": 7114,
      "static": 7115,
      "eph": 7116,
      "Ġlan": 7117,
      "TV": 7118,
      "Ġattack": 7119,
      "ĠìłĦ": 7120,
      "jpg": 7121,
      "icult": 7122,
      "zt": 7123,
      "ĠArch": 7124,
      "light": 7125,
      "oca": 7126,
      "uest": 7127,
      "Ġsimple": 7128,
      "Ġamb": 7129,
      "imal": 7130,
      "ĠKe": 7131,
      "Ð¸ÑĢÐ¾Ð²": 7132,
      "Ġincludes": 7133,
      "ĠÑĩÐ°ÑģÑĤ": 7134,
      "ĠThomas": 7135,
      "ĠAwards": 7136,
      "æ¢": 7137,
      "leh": 7138,
      "Ġelection": 7139,
      "Ð½Ð°Ñĩ": 7140,
      "ÑĪÐµ": 7141,
      "Ġdeal": 7142,
      "Ġdei": 7143,
      "Ġprovides": 7144,
      "å°Ĩ": 7145,
      "Ġcy": 7146,
      "Ġeine": 7147,
      "cut": 7148,
      "á»ģ": 7149,
      "Ġoutput": 7150,
      "idas": 7151,
      "uster": 7152,
      "');": 7153,
      "object": 7154,
      "ĠAv": 7155,
      "Ġshare": 7156,
      "bon": 7157,
      "ĠMat": 7158,
      "ĠCr": 7159,
      "ĠÐ¸Ð½": 7160,
      "ĠÑģÐ¾ÑģÑĤÐ°Ð²": 7161,
      "ĠTeam": 7162,
      "ĠInt": 7163,
      "Ġwhy": 7164,
      "cial": 7165,
      "ĠÐ¸Ð¼": 7166,
      "á»Ļc": 7167,
      "roy": 7168,
      "Ġ×¢×": 7169,
      "ĠnÃły": 7170,
      "Ġmind": 7171,
      "íĦ": 7172,
      "Ġrock": 7173,
      "pose": 7174,
      "ĠAcadem": 7175,
      "Ġ(\"": 7176,
      "ĠÅ¾": 7177,
      "onia": 7178,
      "ãģĿ": 7179,
      "Pos": 7180,
      "iÅŁ": 7181,
      "ĠGovern": 7182,
      "ĠÑī": 7183,
      "ĠÏħ": 7184,
      "å¸¸": 7185,
      "nav": 7186,
      "ÑģÐºÐ°Ñı": 7187,
      "ĠÐ°ÑĢ": 7188,
      "ãĤ¦": 7189,
      "ĠRepublic": 7190,
      "larak": 7191,
      "ä¿Ŀ": 7192,
      "arter": 7193,
      "ql": 7194,
      "ìłľ": 7195,
      "Ġsqu": 7196,
      "svg": 7197,
      "ãĥĹ": 7198,
      "cr": 7199,
      "ĠNor": 7200,
      "iting": 7201,
      "Ġsens": 7202,
      "ĠStreet": 7203,
      "But": 7204,
      "æĸĻ": 7205,
      "xim": 7206,
      "çį": 7207,
      "ĠÎĵ": 7208,
      "Ġjava": 7209,
      "Ġtempor": 7210,
      "ģ¬": 7211,
      "Ġstrateg": 7212,
      "åıĹ": 7213,
      "´Ģ": 7214,
      "Ġhabit": 7215,
      "Ã¼k": 7216,
      "ĠSuper": 7217,
      "è¿ĳ": 7218,
      "Ġchall": 7219,
      "ML": 7220,
      "dr": 7221,
      "å·Ŀ": 7222,
      "Ġhalf": 7223,
      "Ġparty": 7224,
      "ĠEuropean": 7225,
      "ÐµÐ½Ð°": 7226,
      "resh": 7227,
      "Ġrelease": 7228,
      "Ġclean": 7229,
      "anya": 7230,
      "gs": 7231,
      "Am": 7232,
      "Ã¹ng": 7233,
      "group": 7234,
      "è¡ĮæĺŁ": 7235,
      "Ġcontinue": 7236,
      "rote": 7237,
      "Ġperm": 7238,
      "aves": 7239,
      "ĠGerman": 7240,
      "Ġmal": 7241,
      "Ġbal": 7242,
      "ãĥ£": 7243,
      "pes": 7244,
      "ĠProv": 7245,
      "Ġsuccessful": 7246,
      "Ġmass": 7247,
      "Te": 7248,
      "uggest": 7249,
      "enced": 7250,
      "Ġdesigned": 7251,
      "ĠGen": 7252,
      "ĠPet": 7253,
      "æĪĺ": 7254,
      "INE": 7255,
      "ĠLouis": 7256,
      "ufact": 7257,
      "Ã³r": 7258,
      "change": 7259,
      "Åį": 7260,
      "PS": 7261,
      "Ġcapt": 7262,
      "Ġinstance": 7263,
      "Ġenough": 7264,
      "å§Ķ": 7265,
      "valid": 7266,
      "Ġmeas": 7267,
      "Ġpub": 7268,
      "User": 7269,
      "Ġincl": 7270,
      "Ġëĵ": 7271,
      "Ġsebagai": 7272,
      "Ġpent": 7273,
      "è»į": 7274,
      "è¼": 7275,
      "ÑģÑĤÐ²ÐµÐ½": 7276,
      "cope": 7277,
      "uct": 7278,
      "using": 7279,
      "artment": 7280,
      "rect": 7281,
      "ìĹĪëĭ¤": 7282,
      "æľĿ": 7283,
      "Ð½Ð¾ÑģÑĤÐ¸": 7284,
      "Ġperfect": 7285,
      "ĠÐ²Ñģ": 7286,
      "Ġthough": 7287,
      "Ġlate": 7288,
      "iat": 7289,
      "Ġfu": 7290,
      "ĠIr": 7291,
      "Ġnie": 7292,
      "éĽ»": 7293,
      "ìĤ": 7294,
      "Ð¾Ð³ÑĢÐ°ÑĦ": 7295,
      "ÐµÐ»Ñı": 7296,
      "ĠOpen": 7297,
      "ĠnhÆ°": 7298,
      "iche": 7299,
      "ĠRos": 7300,
      "Ġà¤ĩ": 7301,
      "å°¼": 7302,
      "íļĮ": 7303,
      "Ġindepend": 7304,
      "é©¬": 7305,
      "Ð´Ðµ": 7306,
      "Ġentire": 7307,
      "ilor": 7308,
      "æ·": 7309,
      "æ¶": 7310,
      "Î¼ÏĢ": 7311,
      "ĠGal": 7312,
      "Ġsich": 7313,
      "ĠÏĢÏģÎ¿": 7314,
      "Ã³s": 7315,
      "Ġ×Ļ×": 7316,
      "ographie": 7317,
      "ledge": 7318,
      "ÏģÏĮ": 7319,
      "éĹ´": 7320,
      "Ġhot": 7321,
      "onder": 7322,
      "åıĤèĢĥ": 7323,
      "ĠCarl": 7324,
      "ĠÎĴ": 7325,
      "ĠRob": 7326,
      "Ġitem": 7327,
      "resp": 7328,
      "izer": 7329,
      "Ġ×¨": 7330,
      "á»¯ng": 7331,
      "erve": 7332,
      "Ġìĥ": 7333,
      "Ġunique": 7334,
      "Ġps": 7335,
      "ĠClass": 7336,
      "Status": 7337,
      "Ġvillage": 7338,
      "tor": 7339,
      "ê²Į": 7340,
      "Ġang": 7341,
      "Ã¯": 7342,
      "Array": 7343,
      "ç»ı": 7344,
      "amples": 7345,
      "Ġoffers": 7346,
      "Ġbring": 7347,
      "gn": 7348,
      "Ent": 7349,
      "ĠPresident": 7350,
      "ĠØ²": 7351,
      "iar": 7352,
      "oire": 7353,
      "ł×Ļ": 7354,
      "Ġdepart": 7355,
      "Ġcontinu": 7356,
      "ĠPeter": 7357,
      "Ġ<<": 7358,
      "ĠEsp": 7359,
      "ĠChurch": 7360,
      "ĠÐ¾Ð±Ð»Ð°ÑģÑĤ": 7361,
      "ÄĽt": 7362,
      "Ġminutes": 7363,
      "ĠMiss": 7364,
      "Ġreason": 7365,
      "æĮĩ": 7366,
      "ĠDev": 7367,
      "Ġlocation": 7368,
      "ĠÐ½Ð°Ð·": 7369,
      "ĠFin": 7370,
      "éĺ¿": 7371,
      "éľ": 7372,
      "ĠUnidos": 7373,
      "Ed": 7374,
      "Ġhours": 7375,
      "Ġvez": 7376,
      "Ġvot": 7377,
      "cht": 7378,
      "base": 7379,
      "duced": 7380,
      "Ġolarak": 7381,
      "ĠMary": 7382,
      "èµĽ": 7383,
      "ugar": 7384,
      "ynam": 7385,
      "Ġlanguage": 7386,
      "ĠsÄĥ": 7387,
      "ÑĢÐ°ÑĤ": 7388,
      "ÑĸÑĩ": 7389,
      "Ð»Ð¾Ð²": 7390,
      "rypt": 7391,
      "ĠFC": 7392,
      "iaÅĤ": 7393,
      ".</": 7394,
      "ë§Ī": 7395,
      "ĠEstados": 7396,
      "ĠVir": 7397,
      "Ġpet": 7398,
      "check": 7399,
      "ĠÐ¿ÑĢÐµ": 7400,
      "Ġile": 7401,
      "å¤§åŃ¦": 7402,
      "åŀĭ": 7403,
      "å°ıè¡ĮæĺŁ": 7404,
      "mem": 7405,
      "ĠDirect": 7406,
      ">(": 7407,
      "embro": 7408,
      "Î¹Î½": 7409,
      "ĠDivision": 7410,
      "nov": 7411,
      "aan": 7412,
      "è¿Ľ": 7413,
      "ez": 7414,
      "Ġpain": 7415,
      "FC": 7416,
      "Ġclose": 7417,
      "cular": 7418,
      "Ġcomplete": 7419,
      "Ġusers": 7420,
      "ĠWash": 7421,
      "Ð½Ð¾ÑģÑĤÑĮ": 7422,
      "Ġ\"\\": 7423,
      "alu": 7424,
      "åĲĳ": 7425,
      "enz": 7426,
      "ĠTour": 7427,
      "Ġthought": 7428,
      "ĠÎ¸": 7429,
      "ì¹ĺ": 7430,
      "ÙĪØ³": 7431,
      "áº£o": 7432,
      "erra": 7433,
      "çİ°": 7434,
      "Ã¡d": 7435,
      "Ġsound": 7436,
      "Ġmap": 7437,
      "Ġsignificant": 7438,
      "Ð¾Ð»Ð¾Ð³": 7439,
      "æĦı": 7440,
      "Ġcut": 7441,
      "After": 7442,
      "erman": 7443,
      "Ġfavor": 7444,
      "Ġnu": 7445,
      "Ġà¤Ĩ": 7446,
      "ãĥ¥": 7447,
      "ĠService": 7448,
      "ĠìŀĪ": 7449,
      "ĠBay": 7450,
      "ç½Ĺ": 7451,
      "olution": 7452,
      "ãĥĩ": 7453,
      "ĠBill": 7454,
      "ìĺĢ": 7455,
      "Bibli": 7456,
      "itar": 7457,
      "à¤Ń": 7458,
      "ĠÑįÑĤ": 7459,
      "ĠÎ®": 7460,
      "ading": 7461,
      "ĠDay": 7462,
      "elen": 7463,
      "Ġtechnology": 7464,
      "Ġcustomers": 7465,
      "icz": 7466,
      "img": 7467,
      "ĠLaw": 7468,
      "eck": 7469,
      "Ġlib": 7470,
      "ì°": 7471,
      "Ġflow": 7472,
      "alla": 7473,
      "eler": 7474,
      "Ġroad": 7475,
      "íĨ": 7476,
      "é¦Ļ": 7477,
      "ospital": 7478,
      "Û¹": 7479,
      "Ġbud": 7480,
      "atro": 7481,
      "×Ļ×ľ": 7482,
      "lim": 7483,
      "Ġoffic": 7484,
      "Ġbool": 7485,
      "png": 7486,
      "oles": 7487,
      "Ġtor": 7488,
      "ribution": 7489,
      "Ġstore": 7490,
      "Ġdiscuss": 7491,
      "Ġ×ľ": 7492,
      "Ġreturned": 7493,
      "CL": 7494,
      "Ġcateg": 7495,
      "known": 7496,
      "ĠkhÃ´ng": 7497,
      "length": 7498,
      "Ġtask": 7499,
      "Ä±nÄ±": 7500,
      "åįĢ": 7501,
      "åĤ": 7502,
      "alo": 7503,
      "Ä±ndan": 7504,
      "Û²": 7505,
      "Ġut": 7506,
      "á»ĳi": 7507,
      "ĠEngland": 7508,
      "Ð»ÐµÐ´": 7509,
      "Ġnombre": 7510,
      "Ð¸Ð¾Ð½": 7511,
      "iá»ģu": 7512,
      "ÑĸÑģ": 7513,
      "Ref": 7514,
      "Referencias": 7515,
      "Ã©ri": 7516,
      "à¥Īà¥¤": 7517,
      "Ð³ÑĢÐ°": 7518,
      "Ġtransfer": 7519,
      "istan": 7520,
      "áº±": 7521,
      "edia": 7522,
      "Î¹ÎºÎ®": 7523,
      "Ġcenter": 7524,
      "van": 7525,
      "Note": 7526,
      "Ġdouble": 7527,
      "oll": 7528,
      "çłĶ": 7529,
      "Ġwritten": 7530,
      "Ð°Ð½Ð¸Ðµ": 7531,
      "Ġpack": 7532,
      "ĠAssociation": 7533,
      "ðŁĩ·": 7534,
      "Ġmanagement": 7535,
      "Î¹Î¬": 7536,
      "ĠÑıÐº": 7537,
      "Ġetc": 7538,
      "PE": 7539,
      "ĠOp": 7540,
      "è¿ĩ": 7541,
      "å·´": 7542,
      "ÙħÙĨ": 7543,
      "Ġcast": 7544,
      "argin": 7545,
      "OL": 7546,
      "emp": 7547,
      "ãģĵãģ¨": 7548,
      "iÃ§Ã£o": 7549,
      "ĠAcc": 7550,
      "Ġadditional": 7551,
      "igation": 7552,
      "Ġbox": 7553,
      "à¸": 7554,
      "Ġìļ": 7555,
      "eno": 7556,
      "Ġsoftware": 7557,
      "Å©": 7558,
      "west": 7559,
      "Ġhor": 7560,
      "ç§°": 7561,
      "Ġeducation": 7562,
      "å§ĭ": 7563,
      "ÏģÎµ": 7564,
      "mt": 7565,
      "Å¡ÃŃ": 7566,
      "Ġcel": 7567,
      "Ø±Ø¯": 7568,
      "æıĲ": 7569,
      "å½¢": 7570,
      "rich": 7571,
      "Ġ×Ĳ×ª": 7572,
      "dir": 7573,
      "model": 7574,
      "Ã¡m": 7575,
      "aten": 7576,
      "Ġnight": 7577,
      "é¦ĸ": 7578,
      "Ġestablished": 7579,
      "true": 7580,
      "orial": 7581,
      "çīĪ": 7582,
      "ches": 7583,
      "ĠÏĨ": 7584,
      "Ġextra": 7585,
      "ãģ¤": 7586,
      "à¤ĸ": 7587,
      "Ġmort": 7588,
      "ayout": 7589,
      "ë¯¼": 7590,
      "eros": 7591,
      "ÑģÑĤÐ°Ð²": 7592,
      "èį": 7593,
      "lan": 7594,
      "Ġhttps": 7595,
      "èī²": 7596,
      "èĪĩ": 7597,
      "ussi": 7598,
      "stant": 7599,
      "ENT": 7600,
      "args": 7601,
      "Ġemb": 7602,
      "åĢĭ": 7603,
      "////////": 7604,
      "Ġnos": 7605,
      "Ġrecogn": 7606,
      "band": 7607,
      "ĠMer": 7608,
      "eline": 7609,
      "last": 7610,
      "Ð¸Ð±": 7611,
      "Ġworked": 7612,
      "çı¾": 7613,
      "asÄ±": 7614,
      "nder": 7615,
      "Ġíķĺ": 7616,
      "ÑĨÐ¸Ð¾Ð½": 7617,
      "ãĥĭ": 7618,
      "ĠRichard": 7619,
      "Ġmultiple": 7620,
      "itÃł": 7621,
      "ë©°": 7622,
      "ç·ļ": 7623,
      "client": 7624,
      "ĠOur": 7625,
      "airs": 7626,
      "oon": 7627,
      "Comm": 7628,
      "active": 7629,
      "owa": 7630,
      "Ġpriv": 7631,
      "Ġoption": 7632,
      "riter": 7633,
      "akes": 7634,
      "ĠDer": 7635,
      "ĠRock": 7636,
      "Î¿ÏħÏĤ": 7637,
      "anced": 7638,
      "Ġtim": 7639,
      "Sub": 7640,
      "æµģ": 7641,
      "ĠUK": 7642,
      "Î¿Î½": 7643,
      "ĠUs": 7644,
      "Acc": 7645,
      "Ġrunning": 7646,
      "plication": 7647,
      "inte": 7648,
      "Ġtravel": 7649,
      "Ġloss": 7650,
      "Î³Îº": 7651,
      "ead": 7652,
      "Ġvalid": 7653,
      "eni": 7654,
      "Ãºs": 7655,
      "Ġcandid": 7656,
      "rs": 7657,
      "Ġdied": 7658,
      "Ġconv": 7659,
      "Ġindex": 7660,
      "Ġgiá»": 7661,
      "Ġ...": 7662,
      "ĠXX": 7663,
      "Ġcommer": 7664,
      "ÐµÑĤÐ°": 7665,
      "Str": 7666,
      "bles": 7667,
      "Ġproblem": 7668,
      "Ġitems": 7669,
      "Ġyet": 7670,
      "Ġpotential": 7671,
      "Ġissue": 7672,
      "ÑĢÐ¾Ð´": 7673,
      "Ġobserv": 7674,
      "oo": 7675,
      "Part": 7676,
      "Ġconcern": 7677,
      "å¨": 7678,
      "Group": 7679,
      "Ġ×ł×": 7680,
      "ĠRoyal": 7681,
      "Ġ(*": 7682,
      "ĠStad": 7683,
      "iÃ¨re": 7684,
      "Ŀi": 7685,
      "atre": 7686,
      "Ġensure": 7687,
      "IR": 7688,
      "aire": 7689,
      "emplate": 7690,
      "Ã¢nd": 7691,
      "ĠÄĳáº¿n": 7692,
      "Ġmove": 7693,
      "inos": 7694,
      "ĠìĨ": 7695,
      "ĠTown": 7696,
      "ĠÏĢÎµÏģ": 7697,
      "edy": 7698,
      "ĠestÃ¡": 7699,
      "ĠaÃ±os": 7700,
      "Ġdesde": 7701,
      "Ġwest": 7702,
      "Ġsou": 7703,
      "\"]": 7704,
      "Ġvict": 7705,
      "arc": 7706,
      "Ġsection": 7707,
      "};": 7708,
      "Ġactually": 7709,
      "ĠCD": 7710,
      "Ġaward": 7711,
      "ĠCong": 7712,
      "Ġbeaut": 7713,
      "ÏĥÎµÎ¹": 7714,
      "has": 7715,
      "efore": 7716,
      "Ġseen": 7717,
      "duce": 7718,
      "Ġya": 7719,
      "Ġsubject": 7720,
      "Ã¼m": 7721,
      "[\"": 7722,
      "ãĤŃ": 7723,
      "ĠÑģÐº": 7724,
      "ĊĠĠĠĠĠĠĠĠĠĠĠĠĠĠĠĠĠĠĠĠĠĠĠĠĠĠĠ": 7725,
      "ĠLuc": 7726,
      "Ġroce": 7727,
      "Ġsuggest": 7728,
      "version": 7729,
      "éĩı": 7730,
      "ĠTim": 7731,
      "×ķ×ĵ": 7732,
      "Ġmis": 7733,
      "Ġprior": 7734,
      "Ġfinancial": 7735,
      "Ġinstit": 7736,
      "Ġpromot": 7737,
      "Ġarm": 7738,
      "Ġíĺ": 7739,
      "ÑģÐºÐ¸Ñħ": 7740,
      "Ġgetting": 7741,
      "Ãºblic": 7742,
      "Ġoleh": 7743,
      "ãĤ¨": 7744,
      "Ġeffort": 7745,
      "Ġthu": 7746,
      "rot": 7747,
      "Ġarray": 7748,
      "æĶ¾": 7749,
      "Ġimpact": 7750,
      "Year": 7751,
      "context": 7752,
      "oni": 7753,
      "Ġspecies": 7754,
      "ĠcÄĥ": 7755,
      "cons": 7756,
      "Ġpun": 7757,
      "ocol": 7758,
      "iciÃ³n": 7759,
      "Ġmoved": 7760,
      "alar": 7761,
      "Ġformat": 7762,
      "ÑĸÐ·": 7763,
      "ĠWashington": 7764,
      "ĠDen": 7765,
      "ìĹ¬": 7766,
      "ovi": 7767,
      "Ä±s": 7768,
      "based": 7769,
      "aign": 7770,
      "ÑĥÐ»": 7771,
      "Ġprice": 7772,
      "ffic": 7773,
      "ç¼": 7774,
      "ĠMen": 7775,
      "default": 7776,
      "ĠÏĦÎ±": 7777,
      "×ķ×Ĳ": 7778,
      "Ġenergy": 7779,
      "uge": 7780,
      "Ø§Ø¦": 7781,
      "Î¯Î½Î±Î¹": 7782,
      "ĠOk": 7783,
      "Ġcapital": 7784,
      "Ġale": 7785,
      "Ġsecurity": 7786,
      "Ġrelationship": 7787,
      "chen": 7788,
      "ĠVict": 7789,
      "è¨Ń": 7790,
      "çĮ": 7791,
      "bers": 7792,
      "ĠWork": 7793,
      "amer": 7794,
      "ĠCentral": 7795,
      "nych": 7796,
      "Ġë¬": 7797,
      "Ġliving": 7798,
      "ĠÙĪØ§ÙĦ": 7799,
      "Ġexpected": 7800,
      "å®ĺ": 7801,
      "astic": 7802,
      "Ã¡v": 7803,
      "ÅĤo": 7804,
      "Ġill": 7805,
      "Ġtal": 7806,
      "ÐµÑĢÐ²": 7807,
      "ÐºÐµ": 7808,
      "/**": 7809,
      "Ġfriend": 7810,
      "Ã¡ri": 7811,
      "çº¿": 7812,
      "Ġmor": 7813,
      "ãĤĵ": 7814,
      "ming": 7815,
      "ĠÐ¾ÑĢ": 7816,
      "ĠÚ¯": 7817,
      "host": 7818,
      "ened": 7819,
      "ĠRoad": 7820,
      "åıĸ": 7821,
      "Ġreach": 7822,
      "ĠFrom": 7823,
      "Ġtáº¡i": 7824,
      "åĪĿ": 7825,
      "ä¸ļ": 7826,
      "ĠgÃ©n": 7827,
      "ston": 7828,
      "Ġdevice": 7829,
      "æ©Ł": 7830,
      "Ġcant": 7831,
      "Ġblack": 7832,
      "Ġtaken": 7833,
      "package": 7834,
      "atory": 7835,
      "Ġdebut": 7836,
      "Ġdirector": 7837,
      "ĠâĢľ": 7838,
      "oid": 7839,
      "ĽĦ": 7840,
      "ÚĨ": 7841,
      "Ġfire": 7842,
      "itate": 7843,
      "Ge": 7844,
      "quired": 7845,
      "ouv": 7846,
      "Ġthing": 7847,
      "riz": 7848,
      "lang": 7849,
      "æ²³": 7850,
      "Web": 7851,
      "Ġstandard": 7852,
      "Ġdistrict": 7853,
      "ÐµÐµ": 7854,
      "ĠRem": 7855,
      "Ġsud": 7856,
      "ÐµÐ½ÑĮ": 7857,
      "OD": 7858,
      "Ġsin": 7859,
      "ĠTex": 7860,
      "Ð¸ÐºÐ°": 7861,
      "Ġannounced": 7862,
      "Ġcab": 7863,
      "ĠPortug": 7864,
      "Ġtaking": 7865,
      "max": 7866,
      "ÑĢÐ¾Ð¼": 7867,
      "ungen": 7868,
      "ÑİÑī": 7869,
      "íĦ°": 7870,
      "bur": 7871,
      "Ġgia": 7872,
      "ĠBur": 7873,
      "ĠTime": 7874,
      "coming": 7875,
      "åĦ": 7876,
      "ÐµÐ¼Ð¿": 7877,
      "Ġ×¢×ľ": 7878,
      "sche": 7879,
      "roller": 7880,
      "cher": 7881,
      "lib": 7882,
      "æĪĸ": 7883,
      "ening": 7884,
      "ging": 7885,
      "Ġpick": 7886,
      "çĿ": 7887,
      "ĠDi": 7888,
      "Art": 7889,
      "Ġinstead": 7890,
      "æĮģ": 7891,
      "ĠgÃ¶": 7892,
      "Ġconsist": 7893,
      "Ġcook": 7894,
      "Ġdifficult": 7895,
      "Ã¡rio": 7896,
      "Ġà¤¯": 7897,
      "Amer": 7898,
      "ĠPlay": 7899,
      "Ġtod": 7900,
      "Dis": 7901,
      "Ġallows": 7902,
      "ÙĪÛĮ": 7903,
      "win": 7904,
      "ĠGeorg": 7905,
      "Ġstay": 7906,
      "èĦ": 7907,
      "eli": 7908,
      "ĠÅĽ": 7909,
      "ÅĦsk": 7910,
      "Ä©": 7911,
      "Categories": 7912,
      "Ġutiliz": 7913,
      "Ġattempt": 7914,
      "cos": 7915,
      "ological": 7916,
      "Ġlength": 7917,
      "Ġjud": 7918,
      "rt": 7919,
      "Ġnach": 7920,
      "ĠÃģ": 7921,
      "Ġupdate": 7922,
      "ĠTop": 7923,
      "Ġexecut": 7924,
      "wer": 7925,
      "Ġcontra": 7926,
      "ĠProf": 7927,
      "Ġbrand": 7928,
      "Ĭ¹": 7929,
      "ĠÐ¿ÑĢÐ°Ð²": 7930,
      "ĠOlymp": 7931,
      "Ġglobal": 7932,
      ".:": 7933,
      "Ġnas": 7934,
      "Gener": 7935,
      "Ġselect": 7936,
      "Ø§Ø´": 7937,
      "ĠCommun": 7938,
      "gio": 7939,
      "hn": 7940,
      "Input": 7941,
      "ĠÑģÐµÑĢ": 7942,
      "ĠGreen": 7943,
      "Ġveh": 7944,
      "Act": 7945,
      "oli": 7946,
      "Ġclear": 7947,
      "ĠIndian": 7948,
      "ë¯¸": 7949,
      "igo": 7950,
      "Ġdoesn": 7951,
      "Ġtur": 7952,
      "ĠAk": 7953,
      "Ut": 7954,
      "ĠÐºÐ¾ÑĢ": 7955,
      "ĠEv": 7956,
      "nej": 7957,
      "loss": 7958,
      "}}": 7959,
      "Ùĭ": 7960,
      "Ġsel": 7961,
      "Ġcurrently": 7962,
      "ÑıÐ½": 7963,
      "ãĤĦ": 7964,
      "III": 7965,
      "Ġlu": 7966,
      "Ġsystems": 7967,
      "ĠìĦł": 7968,
      "sd": 7969,
      "Ver": 7970,
      "ĠÄĳÃ³": 7971,
      "éĺŁ": 7972,
      "asons": 7973,
      "chan": 7974,
      "ĠSoc": 7975,
      "ĠUnion": 7976,
      "Ġespecially": 7977,
      "atÄĥ": 7978,
      "ĠFinal": 7979,
      "empor": 7980,
      "éģ¸": 7981,
      "çĶ»": 7982,
      "lav": 7983,
      "status": 7984,
      "Ġë¯": 7985,
      "Ġdigital": 7986,
      "rip": 7987,
      "Ġcoach": 7988,
      "Ġital": 7989,
      "osto": 7990,
      "ç®¡": 7991,
      "ternal": 7992,
      "Ġfall": 7993,
      "ged": 7994,
      "ÙĬØ¯": 7995,
      "Ġregard": 7996,
      "Ġdim": 7997,
      "Ġchurch": 7998,
      "Count": 7999,
      "Ġactual": 8000,
      "ÑģÑĤÐ²Ð¾": 8001,
      "(&": 8002,
      "Link": 8003,
      "Ret": 8004,
      "Ġ});": 8005,
      "anning": 8006,
      "idente": 8007,
      "ç»Ħ": 8008,
      "Ġkt": 8009,
      "Ġfather": 8010,
      "ĠMex": 8011,
      "ÑĢÑĥÐ¿": 8012,
      "Ãºn": 8013,
      "Ġthroughout": 8014,
      "ĠRecords": 8015,
      "ilities": 8016,
      "ceed": 8017,
      "Ġinsp": 8018,
      "ÑĥÑħ": 8019,
      "hem": 8020,
      "ç¨ĭ": 8021,
      "Ġ(!": 8022,
      "Ġcentral": 8023,
      "Ġbackground": 8024,
      "åľº": 8025,
      "Ġpentru": 8026,
      "Âº": 8027,
      "alis": 8028,
      "Ġimm": 8029,
      "Ġconsidered": 8030,
      "zÄħ": 8031,
      "ÑĥÑī": 8032,
      "Ġlost": 8033,
      ":#": 8034,
      "Ġusually": 8035,
      "Ġforma": 8036,
      "rÃ¡": 8037,
      "aug": 8038,
      "Ġinj": 8039,
      "TP": 8040,
      "ÏĦÎµÏģ": 8041,
      "Ġaussi": 8042,
      "ä¿¡": 8043,
      "Ġwhite": 8044,
      "ĠLat": 8045,
      "Ġnhá»¯ng": 8046,
      "ë£": 8047,
      "ĠsÃ£o": 8048,
      "Per": 8049,
      "han": 8050,
      "lie": 8051,
      "ĠíĻ": 8052,
      "ulo": 8053,
      "Ġground": 8054,
      "Ġfait": 8055,
      "Ġprze": 8056,
      "lag": 8057,
      "ç©¶": 8058,
      "iance": 8059,
      "eca": 8060,
      "Ġneeded": 8061,
      "rik": 8062,
      "pty": 8063,
      "Ġsend": 8064,
      "elles": 8065,
      "ĠMos": 8066,
      "ĠsÃ©": 8067,
      "éŃ": 8068,
      "å±ŀ": 8069,
      "Ġship": 8070,
      "ysis": 8071,
      "cie": 8072,
      "yon": 8073,
      "ãĥł": 8074,
      "ĠðŁĩº": 8075,
      "Ġkhi": 8076,
      "ĠprÃ©s": 8077,
      "ĠÑĤÐ°ÐºÐ¶Ðµ": 8078,
      "utsch": 8079,
      "Ġemail": 8080,
      "ardo": 8081,
      "ĠÄĳáº§u": 8082,
      "Ġìłķ": 8083,
      "Ġà¤¶": 8084,
      "bt": 8085,
      "\"),": 8086,
      "Ġaltern": 8087,
      "Ġalla": 8088,
      "æ´»": 8089,
      "irl": 8090,
      "æŃĮ": 8091,
      "ĠYour": 8092,
      "Ġprepar": 8093,
      "ç¿": 8094,
      "ĠOf": 8095,
      "request": 8096,
      "çĭ": 8097,
      "Ġvirt": 8098,
      "ĠMot": 8099,
      "Ġíķľ": 8100,
      "esar": 8101,
      "Ð°Ð±": 8102,
      "ĠÐ½Ð°Ñĩ": 8103,
      "ĠEnd": 8104,
      "Ġelle": 8105,
      "åı¤": 8106,
      "Ġtalk": 8107,
      "case": 8108,
      "ĠWal": 8109,
      "ãĥĵ": 8110,
      "uitar": 8111,
      "ç¯": 8112,
      "Ġsolo": 8113,
      "ostaÅĤ": 8114,
      "Ġreceive": 8115,
      "azy": 8116,
      "Ġdoing": 8117,
      "amm": 8118,
      "Ġhttp": 8119,
      "used": 8120,
      "Ġëĭ¤": 8121,
      "Ġauto": 8122,
      "ĠLin": 8123,
      "ĠÑģÐ¾Ð²": 8124,
      "Ð°ÑĤÐµÐ»ÑĮ": 8125,
      "ĠSon": 8126,
      "ÑģÐºÐ¾Ð¼": 8127,
      "source": 8128,
      "rad": 8129,
      "ãĥĸ": 8130,
      "argo": 8131,
      "Ð¾ÑĢÑĤ": 8132,
      "Fun": 8133,
      "itation": 8134,
      "Ġfi": 8135,
      "iá»ĩt": 8136,
      "CE": 8137,
      "ĠIsland": 8138,
      "ĠOper": 8139,
      "Ġpolicy": 8140,
      "Ġgoal": 8141,
      "çĽ´": 8142,
      "actory": 8143,
      "oring": 8144,
      "è±": 8145,
      "alled": 8146,
      "á»©c": 8147,
      "ĠÎµÎ¯Î½Î±Î¹": 8148,
      "å¦Ĥ": 8149,
      "Ġteams": 8150,
      "ï¼īãĢĤ": 8151,
      "Ġshows": 8152,
      "ĠÐ³Ð¾ÑĢÐ¾Ð´": 8153,
      "ĠXV": 8154,
      "Ġapproach": 8155,
      "level": 8156,
      "Ġmid": 8157,
      "ĠPress": 8158,
      "åİ¿": 8159,
      "ĠLove": 8160,
      "Ġfiles": 8161,
      "Ð±ÑĢÑı": 8162,
      "post": 8163,
      "ĠÐ½Ð°Ñģ": 8164,
      "!--": 8165,
      "ĠBre": 8166,
      "Ġappoint": 8167,
      "ekt": 8168,
      "prÃ¨s": 8169,
      "amily": 8170,
      "è®¾": 8171,
      "Ġhigher": 8172,
      "utt": 8173,
      "ivity": 8174,
      "Ġsaf": 8175,
      "Ð°Ð½ÑĤ": 8176,
      "vest": 8177,
      "oro": 8178,
      "å±Ģ": 8179,
      "Ã¡i": 8180,
      "ĠØ§ÙĦØ¹": 8181,
      "ovÃ©": 8182,
      "vision": 8183,
      "Ġcomplex": 8184,
      "Ġcases": 8185,
      "ĠÐ¾Ð½": 8186,
      "rier": 8187,
      "FL": 8188,
      "ĠMartin": 8189,
      "æĥħ": 8190,
      "Manager": 8191,
      "Ġì²": 8192,
      "where": 8193,
      "ĠÐ¿Ð¾Ð²": 8194,
      "Ġdetails": 8195,
      "ĠKr": 8196,
      "parent": 8197,
      "division": 8198,
      "Ġcop": 8199,
      "éĢ£": 8200,
      "ĠCouncil": 8201,
      "xy": 8202,
      "Ġpred": 8203,
      "Ġserver": 8204,
      "Property": 8205,
      "encies": 8206,
      "Ġmaintain": 8207,
      "Ø§ÙĤ": 8208,
      "ĠbaÅŁ": 8209,
      "Ġchoose": 8210,
      "Ġcause": 8211,
      "çłĶç©¶": 8212,
      "ĠÑĢÐ¾Ð·": 8213,
      "ĠÐºÐ¾Ð»": 8214,
      "ëĭĪ": 8215,
      "ĠBus": 8216,
      "ĠWhite": 8217,
      "pri": 8218,
      "draw": 8219,
      "Ġtu": 8220,
      "Ġagre": 8221,
      "ĠSmith": 8222,
      "Ġincrease": 8223,
      "íģ¬": 8224,
      "ĠLife": 8225,
      "bi": 8226,
      "Ġfrequ": 8227,
      "aman": 8228,
      "Builder": 8229,
      "ĠAle": 8230,
      "abs": 8231,
      "Ġju": 8232,
      "plit": 8233,
      "ĠÐ²Ð¾Ð·": 8234,
      "Ġful": 8235,
      "Fr": 8236,
      "ÐµÐ»Ð¸": 8237,
      "aka": 8238,
      "ĠLong": 8239,
      "Ġbank": 8240,
      "src": 8241,
      "Ġpercent": 8242,
      "ãĤº": 8243,
      "adata": 8244,
      "loat": 8245,
      "Ġfunc": 8246,
      "atives": 8247,
      "×Ļ×Ļ×": 8248,
      "Ġdia": 8249,
      "Ġaccording": 8250,
      "Ãªme": 8251,
      "ustr": 8252,
      "Å¡t": 8253,
      "ained": 8254,
      "Ġwalk": 8255,
      "Ġast": 8256,
      "apa": 8257,
      "pret": 8258,
      "Ġbill": 8259,
      "Ġcomun": 8260,
      "ĠĠĊ": 8261,
      "Ġcross": 8262,
      "pp": 8263,
      "aries": 8264,
      "ĠPop": 8265,
      "ä¸Ģä¸ª": 8266,
      "anie": 8267,
      "final": 8268,
      "isa": 8269,
      "mann": 8270,
      "event": 8271,
      "IX": 8272,
      "nost": 8273,
      "Ġ~": 8274,
      "inin": 8275,
      "EX": 8276,
      "Î¬Î½": 8277,
      "Pre": 8278,
      "Ġheart": 8279,
      "ĠÑĢÐ°Ð¹Ð¾Ð½": 8280,
      "ĠÐĿÐ°": 8281,
      "Ġlie": 8282,
      "iale": 8283,
      "RA": 8284,
      "ĠMaria": 8285,
      "Ð¨": 8286,
      "aga": 8287,
      "ĠWhile": 8288,
      "Ġ[]": 8289,
      "ĠCarol": 8290,
      "Ð½Ð¸ÑĨ": 8291,
      "Ġconstruction": 8292,
      "esk": 8293,
      "Ġlower": 8294,
      "enÃŃ": 8295,
      "ĠìĿ¼": 8296,
      "åĥ": 8297,
      "Ġtip": 8298,
      "car": 8299,
      "ĠWhat": 8300,
      "Ġwriting": 8301,
      "Ġrate": 8302,
      "ingen": 8303,
      "ĠMax": 8304,
      "Î¿ÏħÎ½": 8305,
      "ĠyÄ±l": 8306,
      "./": 8307,
      "Ã¶l": 8308,
      "ĠMur": 8309,
      "Ġaverage": 8310,
      "ĠMuseum": 8311,
      "Ġmanufact": 8312,
      "Ġìĺģ": 8313,
      "Ġthá»ĥ": 8314,
      "ees": 8315,
      "ãĥĬ": 8316,
      "uda": 8317,
      "Ġdou": 8318,
      "Ġnature": 8319,
      "iri": 8320,
      "ĠBrasil": 8321,
      "è«": 8322,
      "Ð¸ÐµÐ¼": 8323,
      "nak": 8324,
      "Ã½m": 8325,
      "iful": 8326,
      "pc": 8327,
      "Ġvaria": 8328,
      "ÏģÏī": 8329,
      "enta": 8330,
      "ĠStar": 8331,
      "Ġsays": 8332,
      "very": 8333,
      "åħī": 8334,
      "Lo": 8335,
      "æ±Ł": 8336,
      "=\"#": 8337,
      "Override": 8338,
      "Ġnode": 8339,
      "eh": 8340,
      "bra": 8341,
      "ĠíĶ": 8342,
      "ĠNULL": 8343,
      "ìĦł": 8344,
      "run": 8345,
      "Ð½ÑĥÑİ": 8346,
      "Ġlegal": 8347,
      "Ġplaying": 8348,
      "ĠChristian": 8349,
      "ÄŁi": 8350,
      "Ġmu": 8351,
      "bour": 8352,
      "selves": 8353,
      "ĠÑģÐ°Ð¼": 8354,
      "Ġcollect": 8355,
      "Ġlikely": 8356,
      "ĸ×": 8357,
      "ĠMinister": 8358,
      "Ġë²": 8359,
      "è§Ĩ": 8360,
      "Ġlabel": 8361,
      "dat": 8362,
      "Ġstaff": 8363,
      "quals": 8364,
      "Ġquestion": 8365,
      "Ġlig": 8366,
      "urance": 8367,
      "çŁ¥": 8368,
      "ĠJac": 8369,
      "Ġbag": 8370,
      "Ġoutside": 8371,
      "ĠSanta": 8372,
      "Ġfail": 8373,
      "åŃĹ": 8374,
      "Î±Î»": 8375,
      "Ãłng": 8376,
      "Ġcompl": 8377,
      "ĠngÃły": 8378,
      "çĶ·": 8379,
      "ÐºÐ°Ð·": 8380,
      "Ð¾Ð²Ð°": 8381,
      "Sec": 8382,
      "zel": 8383,
      "åį¡": 8384,
      "Ġpresident": 8385,
      "ë¬¸": 8386,
      "ĠPublic": 8387,
      "ë©´": 8388,
      "Ġearn": 8389,
      "å°ĳ": 8390,
      "Ġ------": 8391,
      "uses": 8392,
      "craft": 8393,
      "uman": 8394,
      "owie": 8395,
      "ÐºÐ¸Ñħ": 8396,
      "Ġquestions": 8397,
      "ĠFestival": 8398,
      "ÙħØ§ÙĨ": 8399,
      "Ã³ria": 8400,
      "uje": 8401,
      "Ġà¤ªà¤°": 8402,
      "ÑĥÐ»ÑĮÑĤ": 8403,
      "build": 8404,
      "ÈĽie": 8405,
      "Ġdraw": 8406,
      "Ġbij": 8407,
      "HE": 8408,
      "ĠTele": 8409,
      "Ġuses": 8410,
      "asse": 8411,
      "Ġconditions": 8412,
      "Ã©ric": 8413,
      "epend": 8414,
      ";</": 8415,
      "ĠBi": 8416,
      "query": 8417,
      "Ġtell": 8418,
      "ĠPost": 8419,
      "bin": 8420,
      "Ġtransport": 8421,
      "mm": 8422,
      "}.": 8423,
      "Ġfont": 8424,
      "ìĹŃ": 8425,
      "atura": 8426,
      "Source": 8427,
      "å¤«": 8428,
      "Ãªm": 8429,
      "ĠvÃ½": 8430,
      "Ġlonger": 8431,
      "yth": 8432,
      "Ø§Ø³Øª": 8433,
      "ril": 8434,
      "ĠAz": 8435,
      "ÅĤy": 8436,
      "Mar": 8437,
      "äºĶ": 8438,
      "Ġpolitical": 8439,
      "Call": 8440,
      "Car": 8441,
      "amework": 8442,
      "war": 8443,
      "ÑģÑĮÐºÐ¾Ð³Ð¾": 8444,
      "Æ¡n": 8445,
      "ãģĦãģŁ": 8446,
      "ĠScott": 8447,
      "Ġà¤ķà¤°": 8448,
      "One": 8449,
      "ÑĥÐº": 8450,
      "Ġgrande": 8451,
      "åĳ½": 8452,
      "Ġtakes": 8453,
      "ĠUr": 8454,
      "ĠÎĿ": 8455,
      "asket": 8456,
      "rial": 8457,
      "Ġheight": 8458,
      "OP": 8459,
      "amen": 8460,
      "Bi": 8461,
      "åįİ": 8462,
      "Ġterms": 8463,
      "ÏģÏĩ": 8464,
      "å°±": 8465,
      "èģĶ": 8466,
      "íĮ": 8467,
      "Ġsous": 8468,
      "chi": 8469,
      "Ġactive": 8470,
      "Ġsubs": 8471,
      "azz": 8472,
      "Ġgoals": 8473,
      "Ġcannot": 8474,
      "Ġmusical": 8475,
      "ĊĠĠĠĠĠĠĠĠĠĠĠĠĠĠĠĠĠĠĠĠĠĠĠĠĠĠĠĠĠĠĠĠ": 8476,
      "ł×ķ×": 8477,
      "ãģ§ãģĤãĤĭ": 8478,
      "Ð¼Ñĥ": 8479,
      "Ġways": 8480,
      "ĠAPI": 8481,
      "gy": 8482,
      "çĻº": 8483,
      "ĠìŀĪëĭ¤": 8484,
      "á»Ļi": 8485,
      "idden": 8486,
      "arde": 8487,
      "sen": 8488,
      "ĠÐłÐ¾ÑģÑģ": 8489,
      "ÃŃcul": 8490,
      "just": 8491,
      "ĠGer": 8492,
      "ãģĪ": 8493,
      "adding": 8494,
      "Ġanos": 8495,
      "sa": 8496,
      "aha": 8497,
      "dt": 8498,
      "ĠAth": 8499,
      "Ð¡Ðł": 8500,
      "ĠFil": 8501,
      "ÏģÎ·": 8502,
      "udo": 8503,
      "Ġupon": 8504,
      "aja": 8505,
      "Che": 8506,
      "rak": 8507,
      "ÑĥÑģÑĤ": 8508,
      "andom": 8509,
      "ëªħ": 8510,
      "ĠÐ¿ÑĢÐ¾ÑĤ": 8511,
      "ĠÎĶ": 8512,
      "istics": 8513,
      "ãģ©": 8514,
      "çĦ¶": 8515,
      "google": 8516,
      "éĩİ": 8517,
      "Ġcapac": 8518,
      "Ġgroups": 8519,
      "Ċĉĉĉĉĉ": 8520,
      "Ġeverything": 8521,
      "uta": 8522,
      "é¾": 8523,
      "Ġprevent": 8524,
      "enge": 8525,
      "Ġwhole": 8526,
      "ĊĊĠĠĠĠĠ": 8527,
      "ints": 8528,
      "format": 8529,
      "Ġsn": 8530,
      "ÑĤÑĮÑģÑı": 8531,
      "nik": 8532,
      "irit": 8533,
      "terior": 8534,
      "æ»": 8535,
      "ĠÎ»": 8536,
      "Ġdeveloped": 8537,
      "Ġë³´": 8538,
      "Ġalmost": 8539,
      "amin": 8540,
      "ĠHenry": 8541,
      "SC": 8542,
      "itude": 8543,
      "ĠSpace": 8544,
      "Î±ÏģÎ±": 8545,
      "çŁ³": 8546,
      "è¯¥": 8547,
      "ðŁĩª": 8548,
      "ĠHot": 8549,
      "ãģ¨ãģĹãģ¦": 8550,
      "ĠVan": 8551,
      "Ġproduced": 8552,
      "gress": 8553,
      "éĢł": 8554,
      "ÑĢÐ°Ð¶": 8555,
      "×Ļ×Ļ×Ŀ": 8556,
      "ĠrÃ©g": 8557,
      "ĠCop": 8558,
      "ãĤı": 8559,
      "Ġsyn": 8560,
      "İn": 8561,
      "Color": 8562,
      "Ìģ": 8563,
      "Ġvy": 8564,
      "Ġdeliver": 8565,
      "Ġwrite": 8566,
      "ìĭł": 8567,
      "ĠãĢĬ": 8568,
      "Ø¯Ø±": 8569,
      "Ġidea": 8570,
      "Ġcelebr": 8571,
      "Ġdetermin": 8572,
      "Î´Î¿": 8573,
      "########": 8574,
      "ĠAnton": 8575,
      "Ġpert": 8576,
      "Ġsie": 8577,
      "ouve": 8578,
      "eren": 8579,
      "ĠktÃ³": 8580,
      "fol": 8581,
      "Ġcountries": 8582,
      "Ġapply": 8583,
      "èµĦ": 8584,
      "ĠDemocr": 8585,
      "Ġnormal": 8586,
      "Ġpremier": 8587,
      "Ġleading": 8588,
      "rov": 8589,
      "message": 8590,
      "ë§Į": 8591,
      "Ġcat": 8592,
      "ruction": 8593,
      "elah": 8594,
      "Ġcustomer": 8595,
      "Ġrather": 8596,
      "Ð°ÐµÑĤ": 8597,
      "sequ": 8598,
      "apter": 8599,
      "Ð½Ð¾ÑĹ": 8600,
      "count": 8601,
      "udad": 8602,
      "æĹı": 8603,
      "Ġì¤ĳ": 8604,
      "±°": 8605,
      "Ġparts": 8606,
      "Ġartist": 8607,
      "ĠNg": 8608,
      "Ġbyl": 8609,
      "ë¹Ħ": 8610,
      "ĠTexas": 8611,
      "ĠArmy": 8612,
      "Ġbran": 8613,
      "Î±Ïĥ": 8614,
      "athol": 8615,
      "ÑģÑĭ": 8616,
      "Ð°Ñĩ": 8617,
      "Ġcopy": 8618,
      "anti": 8619,
      "ëłĪ": 8620,
      "è§£": 8621,
      "Ġexcept": 8622,
      "ician": 8623,
      "Ã¨res": 8624,
      "Ġrelated": 8625,
      "ÑĨÐ¸Ñı": 8626,
      "posit": 8627,
      "ÙĬÙĦ": 8628,
      "angan": 8629,
      "ouver": 8630,
      "Ġmenj": 8631,
      "Ġdise": 8632,
      "ĠCanad": 8633,
      "Ġgran": 8634,
      "iders": 8635,
      "ÐµÑĩÐ°Ð½Ð¸Ñı": 8636,
      "ĠTechn": 8637,
      "Ġwatch": 8638,
      "ìļ©": 8639,
      "ĠOther": 8640,
      "ĠØ§ÙĦØª": 8641,
      "çĹ": 8642,
      "Ġbed": 8643,
      "Ð´ÐµÐ½": 8644,
      "pet": 8645,
      "rupt": 8646,
      "ĠBig": 8647,
      "server": 8648,
      "Ġbroad": 8649,
      "æĢ»": 8650,
      "Ġupd": 8651,
      "ĠCa": 8652,
      "ĠLog": 8653,
      "Ġunit": 8654,
      "Ð½Ð¸Ð¼": 8655,
      "åħ³": 8656,
      "Ġtemper": 8657,
      "æŃ¦": 8658,
      "ĠDepartment": 8659,
      "ÙĪØª": 8660,
      "ĠBor": 8661,
      "OM": 8662,
      "ĠFo": 8663,
      "prise": 8664,
      "IF": 8665,
      "Ġíķ": 8666,
      "Ġfast": 8667,
      "ĠcÃ´ng": 8668,
      "ê³Ħ": 8669,
      "ĠKon": 8670,
      "Ġconnect": 8671,
      "ugin": 8672,
      "ĠID": 8673,
      "method": 8674,
      "Ġscreen": 8675,
      "hl": 8676,
      "Instance": 8677,
      "Ġculture": 8678,
      "ĠTw": 8679,
      "Ġtorn": 8680,
      "ä½¿çĶ¨": 8681,
      "agne": 8682,
      "Ġstructure": 8683,
      "ĠChin": 8684,
      "ÐŁÑĢÐ¸Ð¼ÐµÑĩÐ°Ð½Ð¸Ñı": 8685,
      "çĻ¼": 8686,
      "Ġdescribed": 8687,
      "ĠÐ¿Ð¾ÑģÑĤ": 8688,
      "Fil": 8689,
      "adr": 8690,
      "ĠÐ¡ÑĤ": 8691,
      "hing": 8692,
      "ĠÄĳá»ĭ": 8693,
      "Î¹ÎºÏĮ": 8694,
      "iti": 8695,
      "à¥Īà¤Ĥ": 8696,
      "ĠMass": 8697,
      "null": 8698,
      "ĠData": 8699,
      "Ġnews": 8700,
      "Ġ×¤": 8701,
      "ĠSeg": 8702,
      "ĠBern": 8703,
      "esa": 8704,
      "Ġaffect": 8705,
      "Îł": 8706,
      "ĠmÃ¡": 8707,
      "nect": 8708,
      "ĠKn": 8709,
      "Ð»Ñĸ": 8710,
      "Liens": 8711,
      "ischer": 8712,
      "èĮ": 8713,
      "Ġreported": 8714,
      "older": 8715,
      "ĠRod": 8716,
      "ech": 8717,
      "Ġcommercial": 8718,
      "ãĥģ": 8719,
      "Ġsoon": 8720,
      "ĠrÃ©fÃ©rences": 8721,
      "lood": 8722,
      "ensi": 8723,
      "ĠGreat": 8724,
      "ÅĽÄĩ": 8725,
      "ĠìĿ¸": 8726,
      "íĥĢ": 8727,
      "æĽ¾": 8728,
      "çĤ¹": 8729,
      "uw": 8730,
      "ĠEnt": 8731,
      "Ġactivities": 8732,
      "Ð³Ð°Ð½": 8733,
      "pected": 8734,
      "CD": 8735,
      "font": 8736,
      "Ġstage": 8737,
      "Ġ×Ľ": 8738,
      "Ġcontains": 8739,
      "åĻ": 8740,
      "ĠÐ¿ÐµÑĢÐ²": 8741,
      "Ġê³µ": 8742,
      "ĠEduc": 8743,
      "std": 8744,
      "å±ķ": 8745,
      "ÑĢÐ¾Ð¿": 8746,
      "ĠLet": 8747,
      "main": 8748,
      "aix": 8749,
      "ÑĬ": 8750,
      "Ø§Ø¬": 8751,
      "Ġload": 8752,
      "ittee": 8753,
      "ĠAnn": 8754,
      "/>": 8755,
      "ĠCourt": 8756,
      "current": 8757,
      "Ġproblems": 8758,
      "Stream": 8759,
      "Ġdoc": 8760,
      "ä»¶": 8761,
      "Å¼e": 8762,
      "Ø¸": 8763,
      "Ġboard": 8764,
      "ĠBook": 8765,
      "ĠðŁĩºðŁĩ¸": 8766,
      "ĠServ": 8767,
      "æħ": 8768,
      "site": 8769,
      "Ċĉĉĉĉĉĉ": 8770,
      "gre": 8771,
      "ĠSociety": 8772,
      "rage": 8773,
      "ierre": 8774,
      "uito": 8775,
      "ĠÐĲÐ½": 8776,
      "rito": 8777,
      "Ġorganization": 8778,
      "Ġuns": 8779,
      "num": 8780,
      "åĮħ": 8781,
      "{{": 8782,
      "ãģķãĤĮãģŁ": 8783,
      "Ġvá»ģ": 8784,
      "aft": 8785,
      "Ġhá»įc": 8786,
      "åıĥ": 8787,
      "ÏĪ": 8788,
      "ughter": 8789,
      "ĠWindows": 8790,
      "Ġforward": 8791,
      "kar": 8792,
      "Ġgro": 8793,
      "idents": 8794,
      "append": 8795,
      "Ġdedic": 8796,
      "stream": 8797,
      "UE": 8798,
      "Äħc": 8799,
      "Ġfriends": 8800,
      "elli": 8801,
      "ĠÄĮ": 8802,
      "ĠHon": 8803,
      "Ġsimply": 8804,
      "inition": 8805,
      "ÑĢÐ¾Ð½": 8806,
      "ĠÎĻ": 8807,
      "System": 8808,
      "Ġdol": 8809,
      "Ġlimit": 8810,
      "Ġbad": 8811,
      "cor": 8812,
      "Ð°ÑĤÐ¸": 8813,
      "Ġru": 8814,
      "`,": 8815,
      "ãģ§ãģ¯": 8816,
      "ĠpaÃŃs": 8817,
      "Ġradio": 8818,
      "azon": 8819,
      "Ġexternes": 8820,
      "esta": 8821,
      "ingu": 8822,
      "Ġinside": 8823,
      "Ġsegu": 8824,
      "ĠBal": 8825,
      "ç§į": 8826,
      "ĠSar": 8827,
      "ÑģÐ°": 8828,
      "Ġtom": 8829,
      "page": 8830,
      "isiÃ³n": 8831,
      "================": 8832,
      "á»ĥ": 8833,
      "Ġliber": 8834,
      "Ġgradu": 8835,
      "Ġexpress": 8836,
      "æĶ¯": 8837,
      "çµĦ": 8838,
      "ãĢĢ": 8839,
      "Ġplease": 8840,
      "ĠìŀĲ": 8841,
      "æĪ¦": 8842,
      "ãģ¡": 8843,
      "Ġrisk": 8844,
      "lik": 8845,
      "Ġfirm": 8846,
      "ĠLiber": 8847,
      "ĠNow": 8848,
      "Ġhasta": 8849,
      "Ã¡o": 8850,
      "Ġmedical": 8851,
      "Ġ/>": 8852,
      "Ġìĸ": 8853,
      "ĠÑĢÐ°Ð±Ð¾ÑĤ": 8854,
      "strong": 8855,
      "Î¼Îµ": 8856,
      "respond": 8857,
      "Method": 8858,
      "Ġhous": 8859,
      "ÐºÑĢÐ°ÑĹ": 8860,
      "ĠÐ½Ð°Ð¿": 8861,
      "ĠIndones": 8862,
      "olid": 8863,
      "ĠÎ¬": 8864,
      "het": 8865,
      "header": 8866,
      "ptr": 8867,
      "atu": 8868,
      "ĠÎµÎº": 8869,
      "icago": 8870,
      "Ġì£¼": 8871,
      "Ġbehind": 8872,
      "yles": 8873,
      "ebut": 8874,
      "ê¸": 8875,
      "ĠIng": 8876,
      "ç¤º": 8877,
      "Ġnome": 8878,
      "Ġliv": 8879,
      "Ġnation": 8880,
      "èĳĹ": 8881,
      "ycz": 8882,
      "Ġíı": 8883,
      "Ġlá»": 8884,
      "Äģ": 8885,
      "ĠInstitute": 8886,
      "ÑģÑĤÑĥÐ¿": 8887,
      "Ġtransform": 8888,
      "Ġresource": 8889,
      "Ġsle": 8890,
      "Ġhit": 8891,
      "Ġesta": 8892,
      "ĠSÃ£o": 8893,
      "ÙĦÛĮ": 8894,
      "actions": 8895,
      "ĠRoman": 8896,
      "Ġdelle": 8897,
      "èĴ": 8898,
      "contain": 8899,
      "True": 8900,
      "eller": 8901,
      "Ġà¤ıà¤ķ": 8902,
      "Ġdecision": 8903,
      "ĠOver": 8904,
      "Query": 8905,
      "ĠÐ²ÐµÑĢ": 8906,
      "Ġprotect": 8907,
      "Ġpou": 8908,
      "ĠLu": 8909,
      "é¦Ļæ¸¯": 8910,
      "ĠchÃŃnh": 8911,
      "Prov": 8912,
      "TY": 8913,
      "ÑĭÐ¼": 8914,
      "ĠØ§ÛĮÙĨ": 8915,
      "ÏĥÎ·ÏĤ": 8916,
      "dz": 8917,
      "Ġappl": 8918,
      "§×ķ×": 8919,
      "ĠSun": 8920,
      "Ġresources": 8921,
      "Ġcette": 8922,
      "owaÅĤ": 8923,
      "Ġfit": 8924,
      "Ġpractice": 8925,
      "Ð½Ð¸ÐºÐ°": 8926,
      "ĠReal": 8927,
      "pite": 8928,
      "PL": 8929,
      "Ġvariety": 8930,
      "ÏĦÎ®": 8931,
      "Ġcharg": 8932,
      "ĠGra": 8933,
      "Ġpil": 8934,
      "vÃŃ": 8935,
      "Ġarchitect": 8936,
      "well": 8937,
      "æĽ´": 8938,
      "ĠÄĳá»ĥ": 8939,
      "Ø§Ø¡": 8940,
      "ĠzostaÅĤ": 8941,
      "ĠBoy": 8942,
      "ĠĠĠĠĠĠĠĠĠĠĠĠĠĠĠĠĠĠĠĠĠĠĠĠĠĠĠĠĠĠĠĠĠĠĠĠĠĠĠĠĠĠĠĠĠĠĠĠĠĠĠĠĠĠĠĠĠĠĠĠĠĠĠĠ": 8943,
      "Ã¡z": 8944,
      "button": 8945,
      "izing": 8946,
      "Ġê²½": 8947,
      "Ġansw": 8948,
      "weight": 8949,
      "Î¿Ïģ": 8950,
      "Ġlearning": 8951,
      "Ġcit": 8952,
      "ns": 8953,
      "ìĦ¸": 8954,
      "ĠGermany": 8955,
      "Ð°ÑĪ": 8956,
      "ĠÑīÐ¾": 8957,
      "ateur": 8958,
      "aison": 8959,
      "ĠWomen": 8960,
      "Format": 8961,
      "ĠJoseph": 8962,
      "inder": 8963,
      "det": 8964,
      "Ġans": 8965,
      "ians": 8966,
      "Base": 8967,
      "PR": 8968,
      "Ġvel": 8969,
      "Ġinterface": 8970,
      "Ġsá»±": 8971,
      "Ġforam": 8972,
      "ĠÐºÐ¾Ð¼Ð°Ð½Ð´": 8973,
      "rÃ©": 8974,
      "ĠPerson": 8975,
      "ĠGar": 8976,
      "ĠJer": 8977,
      "Ġwrote": 8978,
      "Ð¾ÑģÐº": 8979,
      "Ġstream": 8980,
      "agon": 8981,
      "Ø¥": 8982,
      "iginal": 8983,
      "ĠNh": 8984,
      "Ġdirectly": 8985,
      "laces": 8986,
      "adre": 8987,
      "AF": 8988,
      "Ġmilitary": 8989,
      "ĠName": 8990,
      "Ġprovinc": 8991,
      "inst": 8992,
      "Ġbur": 8993,
      "Number": 8994,
      "urns": 8995,
      "Ġitself": 8996,
      "Ġconcept": 8997,
      "áº±ng": 8998,
      "skÃ©": 8999,
      "itting": 9000,
      "ìľĦ": 9001,
      "End": 9002,
      "Ġinvolved": 9003,
      "ÑıÐ·": 9004,
      "Ġì°": 9005,
      "like": 9006,
      "wise": 9007,
      "Ġjoined": 9008,
      "Ġconstruct": 9009,
      "ĠìĹŃ": 9010,
      "ajo": 9011,
      "Ġtrav": 9012,
      "íı": 9013,
      "Ġrow": 9014,
      "ł×Ķ": 9015,
      "ĠÐ¸ÑģÐ¿": 9016,
      "jun": 9017,
      "acters": 9018,
      "Î¼Î¬": 9019,
      "ĠKom": 9020,
      "Ġdownload": 9021,
      "Token": 9022,
      "Ġmount": 9023,
      "Fran": 9024,
      "array": 9025,
      "×Ļ×ķ×ª": 9026,
      "Ġimmedi": 9027,
      "ĠJosÃ©": 9028,
      "pi": 9029,
      "Met": 9030,
      "lick": 9031,
      "åıį": 9032,
      "Equal": 9033,
      "Ġarticle": 9034,
      "Ġdrop": 9035,
      "sup": 9036,
      "Ġfond": 9037,
      "PC": 9038,
      "ĠGoogle": 9039,
      "inger": 9040,
      "ĠMost": 9041,
      "Ġrights": 9042,
      "rican": 9043,
      "\").": 9044,
      "Ġcampaign": 9045,
      "Image": 9046,
      "Ġcompleted": 9047,
      "ÐµÐºÑĤ": 9048,
      "ÑĳÑĤ": 9049,
      "ĠnÃº": 9050,
      "ologie": 9051,
      "Ø±Ø§ÙĨ": 9052,
      "ĠCare": 9053,
      "ÐµÑĢÐ¶": 9054,
      "Options": 9055,
      "ç½®": 9056,
      "aires": 9057,
      "Ã±o": 9058,
      "Ġsolid": 9059,
      "Us": 9060,
      "ĠpolÃŃt": 9061,
      "ÈĽii": 9062,
      "åĲĦ": 9063,
      "inda": 9064,
      "ä¸ĸçķĮ": 9065,
      "Ġtelevision": 9066,
      "INT": 9067,
      "ĠKore": 9068,
      "stein": 9069,
      "Ġpero": 9070,
      "Ġìľł": 9071,
      "Ġyap": 9072,
      "Ġwait": 9073,
      "ĠØ±Ø§": 9074,
      "ìĺ¤": 9075,
      "éģĭ": 9076,
      "ĠIsra": 9077,
      "sky": 9078,
      "ÑıÐ²": 9079,
      "Ġexternos": 9080,
      "aje": 9081,
      "Ġpict": 9082,
      "ĠEle": 9083,
      "ĠtrÃªn": 9084,
      "'.": 9085,
      "Ġpark": 9086,
      "ĠFort": 9087,
      "wan": 9088,
      "igu": 9089,
      "ãĥŁ": 9090,
      "Ã¤t": 9091,
      "ìĤ°": 9092,
      "Ġjog": 9093,
      "owe": 9094,
      "Ġcirc": 9095,
      "lock": 9096,
      "Ġnumer": 9097,
      "Ġstudent": 9098,
      "arts": 9099,
      "ãģł": 9100,
      "insi": 9101,
      "Ġquickly": 9102,
      "Ġnames": 9103,
      "erre": 9104,
      "Ġprojects": 9105,
      "Ġdies": 9106,
      "Ġdro": 9107,
      "Ġtransl": 9108,
      "ì¹´": 9109,
      "aca": 9110,
      "ĠiÃ§in": 9111,
      "Ġamer": 9112,
      "local": 9113,
      "})": 9114,
      "Oper": 9115,
      "Ġwr": 9116,
      "ĠÏĦÎ¿ÏħÏĤ": 9117,
      "éĢī": 9118,
      "Ġnella": 9119,
      "Ð³Ð°": 9120,
      "Ġpartir": 9121,
      "uccess": 9122,
      "pass": 9123,
      "Ġnecessary": 9124,
      "Ġrank": 9125,
      "Ġeuro": 9126,
      "ĠHel": 9127,
      "Ġrace": 9128,
      "Ġbá»ĭ": 9129,
      "Ġrecent": 9130,
      "Ġrestaur": 9131,
      "×¨×Ļ×": 9132,
      "ruz": 9133,
      "ĠÐ¯": 9134,
      "Ġknowledge": 9135,
      "Ġcourt": 9136,
      "ÑĢÐ¸ÑĤ": 9137,
      ">&": 9138,
      "Ġcollabor": 9139,
      "EM": 9140,
      "Ġstar": 9141,
      "Ġpob": 9142,
      "Ġscient": 9143,
      "ĠaÃ±o": 9144,
      "ĠÑģÐ²Ð¾": 9145,
      "ifest": 9146,
      "Ġstates": 9147,
      "verse": 9148,
      "char": 9149,
      "itas": 9150,
      "export": 9151,
      "orf": 9152,
      "Ġrad": 9153,
      "css": 9154,
      "ĠÐºÐ¾Ð¼Ð¿": 9155,
      "ĠLee": 9156,
      "Ð½Ñĥ": 9157,
      "Ġ+=": 9158,
      "Ġgrowth": 9159,
      "ĠBud": 9160,
      "Ġcontinued": 9161,
      "Ø±ÙĪ": 9162,
      "odo": 9163,
      "Ġ\"\"": 9164,
      "ributes": 9165,
      "ahan": 9166,
      "ĠArgent": 9167,
      "á»ģn": 9168,
      "ĠBas": 9169,
      "ĠJim": 9170,
      "çĥ": 9171,
      "Ġcompr": 9172,
      "rics": 9173,
      "Ġbei": 9174,
      "ĠMem": 9175,
      "ska": 9176,
      "ç¦ı": 9177,
      "Ġwerden": 9178,
      "Ġjest": 9179,
      "Ġregister": 9180,
      "á»ĳng": 9181,
      "ĠFrancisco": 9182,
      "Ġë¯¸": 9183,
      "Ð´Ð¸": 9184,
      "Ġconsum": 9185,
      "zu": 9186,
      "ëĲľ": 9187,
      "EO": 9188,
      "Ġà¤¥": 9189,
      "Ġger": 9190,
      "aa": 9191,
      "NA": 9192,
      "ãĥ¼ãĥ«": 9193,
      "åħ°": 9194,
      "VID": 9195,
      "ĠSel": 9196,
      "kin": 9197,
      "Ø±ÙĬ": 9198,
      "ç²": 9199,
      "bro": 9200,
      "Ġcolumn": 9201,
      "çĪ¾": 9202,
      "áº£ng": 9203,
      "Ġfight": 9204,
      "Ġcatch": 9205,
      "chaft": 9206,
      "aper": 9207,
      "ÅŁtir": 9208,
      "UM": 9209,
      "aste": 9210,
      "Create": 9211,
      "éķĩ": 9212,
      "ĠÐ·Ð°Ð²": 9213,
      "Ġwie": 9214,
      "Ġfuer": 9215,
      "Ġauch": 9216,
      "Ab": 9217,
      "Ġweight": 9218,
      "rim": 9219,
      "Ġautor": 9220,
      "ĠAustralian": 9221,
      "Ġprotected": 9222,
      "mÄ±ÅŁ": 9223,
      "Les": 9224,
      "....": 9225,
      ":\"": 9226,
      "Â«": 9227,
      "åħ¬åı¸": 9228,
      "Ġ×Ĺ": 9229,
      "({": 9230,
      "ĠKir": 9231,
      "ĠSong": 9232,
      "ĠBul": 9233,
      "Ġopened": 9234,
      "bottom": 9235,
      "Enlaces": 9236,
      "Î´Î±": 9237,
      "arden": 9238,
      "overy": 9239,
      "ĠÎ±ÏĢÎ¿": 9240,
      "ĠSocial": 9241,
      "ìĨĮ": 9242,
      "pack": 9243,
      "house": 9244,
      "Rep": 9245,
      "Å¼y": 9246,
      "agem": 9247,
      "ç»Ł": 9248,
      "ums": 9249,
      "buf": 9250,
      ">>": 9251,
      "iáº¿t": 9252,
      "Î¹ÎºÎ¬": 9253,
      "ì¡°": 9254,
      "`.": 9255,
      "Ġguitar": 9256,
      "Ġsales": 9257,
      "ä¸¤": 9258,
      "ĠPeople": 9259,
      "ĠÐ¾ÑģÐ½Ð¾Ð²": 9260,
      "ÐµÐ½Ð¸Ð¹": 9261,
      "Ġwide": 9262,
      "Äĥr": 9263,
      "ãĤ§": 9264,
      "ournament": 9265,
      "ĠVirgin": 9266,
      "Ġmother": 9267,
      "ĠDuring": 9268,
      "oco": 9269,
      "à¤Ī": 9270,
      "yes": 9271,
      "ĠÐ¿ÑĢÐ¾Ð²": 9272,
      "ĠCla": 9273,
      "½Ķ": 9274,
      "isme": 9275,
      "ì¶": 9276,
      "Resource": 9277,
      "ĠAtt": 9278,
      "DF": 9279,
      "Ġshop": 9280,
      "Ġsept": 9281,
      "åħļ": 9282,
      "Version": 9283,
      "Ġsomeone": 9284,
      "ä¼Ĭ": 9285,
      "Main": 9286,
      "Ð½Ð¸ÐºÐ¸": 9287,
      "ĠRen": 9288,
      "Ġcommune": 9289,
      "Ð¾Ñħ": 9290,
      "Î¸Î·ÎºÎµ": 9291,
      "ĠChicago": 9292,
      "Ð´Ñĥ": 9293,
      "ĠType": 9294,
      "ukan": 9295,
      "term": 9296,
      "Ð¾ÑģÑĮ": 9297,
      "onn": 9298,
      "ilo": 9299,
      "Ġconserv": 9300,
      "apat": 9301,
      "¢ółģ": 9302,
      "ółģ§ółģ¢ółģ": 9303,
      "Ġmarried": 9304,
      "å³¶": 9305,
      "Ġtut": 9306,
      "Ġdop": 9307,
      "Ġdidn": 9308,
      "èĤ²": 9309,
      "sten": 9310,
      ";&": 9311,
      "íĸĪëĭ¤": 9312,
      "ĠJes": 9313,
      "Ġmut": 9314,
      "Ġmode": 9315,
      "ĠGall": 9316,
      "Ġtool": 9317,
      "Ã¼l": 9318,
      "ĠFound": 9319,
      "ÐµÐ»Ð°": 9320,
      "Ġassociated": 9321,
      "á»¥c": 9322,
      "ĠÐĶÐ¶": 9323,
      "Ġauth": 9324,
      "æ¸ħ": 9325,
      "Ø±Ø¨": 9326,
      "íķĺëĬĶ": 9327,
      "ĠMore": 9328,
      "ĠÐ·Ð°Ð¿": 9329,
      "enda": 9330,
      "Ġjs": 9331,
      "Ġdisput": 9332,
      "ĠÐ²Ð¾Ð¹": 9333,
      "ĠÃ´": 9334,
      "ĠNic": 9335,
      "Ġdiscover": 9336,
      "Ġtermin": 9337,
      "ĠHill": 9338,
      "Sup": 9339,
      "ialog": 9340,
      "íķĺìĺĢ": 9341,
      "Ġobtain": 9342,
      "ienne": 9343,
      "ivery": 9344,
      "ĠIV": 9345,
      "Ð·Ð°": 9346,
      "çĻ½": 9347,
      "aled": 9348,
      "ĠAngeles": 9349,
      "Ġdar": 9350,
      "ĠBerlin": 9351,
      "ĠBob": 9352,
      "ĠPrem": 9353,
      "Ġmention": 9354,
      "So": 9355,
      "rÃ³": 9356,
      "Ġmayor": 9357,
      "iert": 9358,
      "ATE": 9359,
      "nection": 9360,
      "Ġmarketing": 9361,
      "Ġsport": 9362,
      "search": 9363,
      "Ġcredit": 9364,
      "áº·c": 9365,
      "Ð¾Ð»ÑĮÑĪ": 9366,
      "oval": 9367,
      "ĠRel": 9368,
      "ĠÐ¦": 9369,
      "ĠBand": 9370,
      "gener": 9371,
      "Ġboolean": 9372,
      "Ġgold": 9373,
      "×Ļ×Ł": 9374,
      "Ġinstr": 9375,
      "hood": 9376,
      "write": 9377,
      "aks": 9378,
      "å¤ĸéĥ¨": 9379,
      "Ġtouch": 9380,
      "Åº": 9381,
      "Ġwor": 9382,
      "ç»ĵ": 9383,
      "ĠLas": 9384,
      "Ġ------------": 9385,
      "eto": 9386,
      "Ġtent": 9387,
      "Ġjournal": 9388,
      "ĠSecond": 9389,
      "ĠÐ²Ð¸Ð´": 9390,
      "Ġtreatment": 9391,
      "Ġfer": 9392,
      "ĠPac": 9393,
      "Null": 9394,
      "Op": 9395,
      "ì¦": 9396,
      "ĠLake": 9397,
      "INEAR": 9398,
      "nÃŃm": 9399,
      "Ð°Ð½Ð¸Ð¸": 9400,
      "Ġoil": 9401,
      "Ġtempl": 9402,
      "ĠTre": 9403,
      "yan": 9404,
      "Ġadapt": 9405,
      "å·²": 9406,
      "Ġsave": 9407,
      "ĠEnter": 9408,
      "è§Ĵ": 9409,
      "Ġserie": 9410,
      "ds": 9411,
      "Ġ×ĳ×ŀ×": 9412,
      "êµŃìĿĺ": 9413,
      "overs": 9414,
      "ãĥĥãĤ¯": 9415,
      "ĠInf": 9416,
      "nego": 9417,
      "Ġprzez": 9418,
      "aling": 9419,
      "ÑĦÐ¾ÑĢ": 9420,
      "ĠDu": 9421,
      "ĠØ§": 9422,
      "Ġability": 9423,
      "abe": 9424,
      "isions": 9425,
      "atar": 9426,
      "mine": 9427,
      "é¤": 9428,
      "Ġfilms": 9429,
      "mission": 9430,
      "Ã¢m": 9431,
      "Ġtras": 9432,
      "Ġfort": 9433,
      "Ġestim": 9434,
      "anner": 9435,
      "itan": 9436,
      "zk": 9437,
      "×Ļ×©": 9438,
      "HT": 9439,
      "ĠPor": 9440,
      "Ġprogress": 9441,
      "Ġ×¨×": 9442,
      "fs": 9443,
      "Ġdonde": 9444,
      "êµ°": 9445,
      "Ġcivil": 9446,
      "Ġjuga": 9447,
      "Ġthá»©": 9448,
      "Ġdefe": 9449,
      "ĠStan": 9450,
      "enses": 9451,
      "Ġclients": 9452,
      "çµĲ": 9453,
      "çīĩ": 9454,
      "ocket": 9455,
      "OC": 9456,
      "ê³µ": 9457,
      "height": 9458,
      "ĠHet": 9459,
      "tait": 9460,
      "ÃŃan": 9461,
      "inary": 9462,
      "ims": 9463,
      "Local": 9464,
      "Ġfarm": 9465,
      "unn": 9466,
      "di": 9467,
      "Ġtools": 9468,
      "ulture": 9469,
      "ĠNacional": 9470,
      "ĠRam": 9471,
      "Ġhar": 9472,
      "Ä±z": 9473,
      "Line": 9474,
      "ieron": 9475,
      "ĠlÃŃ": 9476,
      "Ġvert": 9477,
      "á»ī": 9478,
      "Ġprograms": 9479,
      "rows": 9480,
      "ĠAfrica": 9481,
      "iser": 9482,
      "sole": 9483,
      "ĠëıĻ": 9484,
      "anged": 9485,
      "puÃ©s": 9486,
      "Default": 9487,
      "elijk": 9488,
      "Ġult": 9489,
      "Ġprzy": 9490,
      "ĠBir": 9491,
      "Ã³ÅĤ": 9492,
      "enas": 9493,
      "pers": 9494,
      "ÑģÑĮÐºÐ¾ÑĹ": 9495,
      "Reference": 9496,
      "ëŁ¬": 9497,
      "hist": 9498,
      "]:": 9499,
      "ĠDur": 9500,
      "ĠØ§ÙĨ": 9501,
      "SI": 9502,
      "imb": 9503,
      "ĊĠĠĠĠĠĠ": 9504,
      "iten": 9505,
      "×¨×ķ×": 9506,
      "Ġdog": 9507,
      "next": 9508,
      "ç¾İåĽ½": 9509,
      "ĠRh": 9510,
      "ĠBank": 9511,
      "Ġclick": 9512,
      "Ġuint": 9513,
      "è¨Ģ": 9514,
      "inha": 9515,
      "è®¡": 9516,
      "''": 9517,
      "Ġdit": 9518,
      "ĨĴ": 9519,
      "Ġconnection": 9520,
      "Aut": 9521,
      "ãģ«ãĤĪ": 9522,
      "aval": 9523,
      "ĠDaniel": 9524,
      "ĠAcademy": 9525,
      "Ð¾ÑĢÐ¾Ð½": 9526,
      "Ġbegin": 9527,
      "hec": 9528,
      "Ġsex": 9529,
      "ĠRa": 9530,
      "iros": 9531,
      "Ġbrit": 9532,
      "Ã¢u": 9533,
      "ĠÃ¼ber": 9534,
      "ounds": 9535,
      "Ġregul": 9536,
      "Liga": 9537,
      "ĠMah": 9538,
      "ĠJoh": 9539,
      "äººåı£": 9540,
      "azine": 9541,
      "Ġwife": 9542,
      "inden": 9543,
      "ensus": 9544,
      "ì§Ħ": 9545,
      "Ġimprove": 9546,
      "Output": 9547,
      "docs": 9548,
      "Ġsites": 9549,
      "á»ĩn": 9550,
      "Ġfab": 9551,
      "Ġak": 9552,
      "èªŀ": 9553,
      "ðŁĩº": 9554,
      "ĠSeries": 9555,
      "Ġay": 9556,
      "ÑĨÑĸÑĹ": 9557,
      "ĠInc": 9558,
      "å¥¥": 9559,
      "Ġpaper": 9560,
      "Ġsecret": 9561,
      "ĠSy": 9562,
      "é§": 9563,
      "Ġsigned": 9564,
      "Ġnue": 9565,
      "Ġmethods": 9566,
      "ĠAN": 9567,
      "ÈĻti": 9568,
      "Est": 9569,
      "Ġincor": 9570,
      "iring": 9571,
      "ĠÃĸ": 9572,
      "output": 9573,
      "jav": 9574,
      "Î¯Î¿Ïħ": 9575,
      "Ġonder": 9576,
      "ÑĸÑĢ": 9577,
      "aÃ±a": 9578,
      "çĬ": 9579,
      "Ġweeks": 9580,
      "sec": 9581,
      "ĠìľĦ": 9582,
      "ebol": 9583,
      "heim": 9584,
      "Ġpackage": 9585,
      "ĠÐ´ÑĢÑĥÐ³": 9586,
      "ĠNord": 9587,
      "Ð¸ÐºÐ¸": 9588,
      "Ġdeep": 9589,
      "igan": 9590,
      "ests": 9591,
      "Ġoperation": 9592,
      "Ġdont": 9593,
      "ÑĢÐµÐ¼Ñı": 9594,
      "Ġmunicipal": 9595,
      "æĶ¿åºľ": 9596,
      "è¾¾": 9597,
      "Ġvoc": 9598,
      "uma": 9599,
      "Ã³g": 9600,
      "ĠArm": 9601,
      "Ð»ÐµÐºÑģ": 9602,
      "æľ¨": 9603,
      "ĠÙĦÙĦ": 9604,
      "itos": 9605,
      "long": 9606,
      "Ġsomet": 9607,
      "aby": 9608,
      "czy": 9609,
      "Ġexact": 9610,
      "dem": 9611,
      "ĠFootball": 9612,
      "shire": 9613,
      "TH": 9614,
      "rought": 9615,
      "Ġprefer": 9616,
      "cape": 9617,
      "Ġê²ĥ": 9618,
      "æĽ¸": 9619,
      "åĻ¨": 9620,
      "ografÃŃa": 9621,
      "ĠHealth": 9622,
      "Ã¼nd": 9623,
      "Ġpend": 9624,
      "Ġperman": 9625,
      "ĠOrder": 9626,
      "arily": 9627,
      "ĠMatt": 9628,
      "Ġchanged": 9629,
      "Ġwords": 9630,
      "izes": 9631,
      "æ´²": 9632,
      "Ġsaw": 9633,
      "Ø¦": 9634,
      "Ġ]": 9635,
      "æŀľ": 9636,
      "Ø§Ø±ÛĮ": 9637,
      "ieved": 9638,
      "Ġoperations": 9639,
      "DA": 9640,
      "Ġcondition": 9641,
      "orro": 9642,
      "ĠMu": 9643,
      "ĠØ§ÙĦÙĤ": 9644,
      "DB": 9645,
      "Ġeasily": 9646,
      "ensor": 9647,
      "Ġchalleng": 9648,
      "Ġball": 9649,
      "Ä±lar": 9650,
      "éĢ²": 9651,
      "ĠVill": 9652,
      "Naissance": 9653,
      "indo": 9654,
      "ÙĬÙĥ": 9655,
      "Ġallowed": 9656,
      "ĠÐ±ÑĭÐ»Ð°": 9657,
      "ĠÐ¼ÐµÑģÑĤ": 9658,
      "cell": 9659,
      "watch": 9660,
      "organ": 9661,
      "more": 9662,
      "mos": 9663,
      "ÑĩÐµÑģÐº": 9664,
      "call": 9665,
      "osta": 9666,
      "Ã©tÃ©": 9667,
      "ĠRail": 9668,
      "Ġpolice": 9669,
      "Sp": 9670,
      "ĠSem": 9671,
      "Äĥt": 9672,
      "track": 9673,
      "ĠÎ´Î¹Î±": 9674,
      "ÙĪØ§ÙĨ": 9675,
      "Ġpra": 9676,
      "Content": 9677,
      "ĠÎ±Ïħ": 9678,
      "Ġbelieve": 9679,
      "lat": 9680,
      "Ġrecon": 9681,
      "Ġproper": 9682,
      "Î·ÏĤ": 9683,
      "ãģ¿": 9684,
      "ĠÐ±Ñĥ": 9685,
      "æ³¢": 9686,
      "ë³´": 9687,
      "ĠPri": 9688,
      "cert": 9689,
      "íĤ": 9690,
      "ĠÎĹ": 9691,
      "quis": 9692,
      "Ġoct": 9693,
      "oven": 9694,
      "ç¬¬ä¸Ģ": 9695,
      "ãģ«ãģ¯": 9696,
      "ĠmÄĽ": 9697,
      "Title": 9698,
      "Ag": 9699,
      "Ġmess": 9700,
      "åķĨ": 9701,
      "ovo": 9702,
      "Ġcorrespond": 9703,
      "Ġwel": 9704,
      "anz": 9705,
      "tw": 9706,
      "ĠÎ¹": 9707,
      "embly": 9708,
      "Dec": 9709,
      "ĠÎĽ": 9710,
      "Ġbooks": 9711,
      "ĠBrown": 9712,
      "sz": 9713,
      "agen": 9714,
      "Ġinterpret": 9715,
      "ĠIndonesia": 9716,
      "Ġlargest": 9717,
      "Arg": 9718,
      "Ġpued": 9719,
      "see": 9720,
      "ois": 9721,
      "Ġelements": 9722,
      "Ġmur": 9723,
      "ÏģÎ¹Ïĥ": 9724,
      "hal": 9725,
      "Ġcart": 9726,
      "æ§": 9727,
      "ĠIll": 9728,
      "Ġpurchase": 9729,
      "ĠSir": 9730,
      "äººçī©": 9731,
      "ĠWestern": 9732,
      "uke": 9733,
      "ominated": 9734,
      "iÄĻ": 9735,
      "Ġjul": 9736,
      "Ġbeautiful": 9737,
      "ółģ®": 9738,
      "¥ółģ®": 9739,
      "ółģ§ółģ¿": 9740,
      "ółģ§ółģ¢ółģ¥ółģ®": 9741,
      "ółģ§ółģ¢ółģ¥ółģ®ółģ§ółģ¿": 9742,
      "ĠDet": 9743,
      "æļ": 9744,
      "Ġyourself": 9745,
      "tings": 9746,
      "Ġrail": 9747,
      "ĠÐ¼Ð°ÑĤ": 9748,
      "bes": 9749,
      "ÑĸÐ»": 9750,
      "Äĥng": 9751,
[...]
